{
    "<pad>": 0,
    "<s>": 1,
    "</s>": 2,
    "<unk>": 3,
    "<mask>": 4,
    "!": 5,
    "\"": 6,
    "#": 7,
    "$": 8,
    "%": 9,
    "&": 10,
    "'": 11,
    "(": 12,
    ")": 13,
    "*": 14,
    "+": 15,
    ",": 16,
    "-": 17,
    ".": 18,
    "/": 19,
    "0": 20,
    "1": 21,
    "2": 22,
    "3": 23,
    "4": 24,
    "5": 25,
    "6": 26,
    "7": 27,
    "8": 28,
    "9": 29,
    ":": 30,
    ";": 31,
    "<": 32,
    "=": 33,
    ">": 34,
    "?": 35,
    "@": 36,
    "A": 37,
    "B": 38,
    "C": 39,
    "D": 40,
    "E": 41,
    "F": 42,
    "G": 43,
    "H": 44,
    "I": 45,
    "J": 46,
    "K": 47,
    "L": 48,
    "M": 49,
    "N": 50,
    "O": 51,
    "P": 52,
    "Q": 53,
    "R": 54,
    "S": 55,
    "T": 56,
    "U": 57,
    "V": 58,
    "W": 59,
    "X": 60,
    "Y": 61,
    "Z": 62,
    "[": 63,
    "\\": 64,
    "]": 65,
    "^": 66,
    "_": 67,
    "`": 68,
    "a": 69,
    "b": 70,
    "c": 71,
    "d": 72,
    "e": 73,
    "f": 74,
    "g": 75,
    "h": 76,
    "i": 77,
    "j": 78,
    "k": 79,
    "l": 80,
    "m": 81,
    "n": 82,
    "o": 83,
    "p": 84,
    "q": 85,
    "r": 86,
    "s": 87,
    "t": 88,
    "u": 89,
    "v": 90,
    "w": 91,
    "x": 92,
    "y": 93,
    "z": 94,
    "{": 95,
    "|": 96,
    "}": 97,
    "~": 98,
    "Â¡": 99,
    "Â¢": 100,
    "Â£": 101,
    "Â¤": 102,
    "Â¥": 103,
    "Â¦": 104,
    "Â§": 105,
    "Â¨": 106,
    "Â©": 107,
    "Âª": 108,
    "Â«": 109,
    "Â¬": 110,
    "Â®": 111,
    "Â¯": 112,
    "Â°": 113,
    "Â±": 114,
    "Â²": 115,
    "Â³": 116,
    "Â´": 117,
    "Âµ": 118,
    "Â¶": 119,
    "Â·": 120,
    "Â¸": 121,
    "Â¹": 122,
    "Âº": 123,
    "Â»": 124,
    "Â¼": 125,
    "Â½": 126,
    "Â¾": 127,
    "Â¿": 128,
    "Ã€": 129,
    "Ã": 130,
    "Ã‚": 131,
    "Ãƒ": 132,
    "Ã„": 133,
    "Ã…": 134,
    "Ã†": 135,
    "Ã‡": 136,
    "Ãˆ": 137,
    "Ã‰": 138,
    "ÃŠ": 139,
    "Ã‹": 140,
    "ÃŒ": 141,
    "Ã": 142,
    "ÃŽ": 143,
    "Ã": 144,
    "Ã": 145,
    "Ã‘": 146,
    "Ã’": 147,
    "Ã“": 148,
    "Ã”": 149,
    "Ã•": 150,
    "Ã–": 151,
    "Ã—": 152,
    "Ã˜": 153,
    "Ã™": 154,
    "Ãš": 155,
    "Ã›": 156,
    "Ãœ": 157,
    "Ã": 158,
    "Ãž": 159,
    "ÃŸ": 160,
    "Ã ": 161,
    "Ã¡": 162,
    "Ã¢": 163,
    "Ã£": 164,
    "Ã¤": 165,
    "Ã¥": 166,
    "Ã¦": 167,
    "Ã§": 168,
    "Ã¨": 169,
    "Ã©": 170,
    "Ãª": 171,
    "Ã«": 172,
    "Ã¬": 173,
    "Ã­": 174,
    "Ã®": 175,
    "Ã¯": 176,
    "Ã°": 177,
    "Ã±": 178,
    "Ã²": 179,
    "Ã³": 180,
    "Ã´": 181,
    "Ãµ": 182,
    "Ã¶": 183,
    "Ã·": 184,
    "Ã¸": 185,
    "Ã¹": 186,
    "Ãº": 187,
    "Ã»": 188,
    "Ã¼": 189,
    "Ã½": 190,
    "Ã¾": 191,
    "Ã¿": 192,
    "Ä€": 193,
    "Ä": 194,
    "Ä‚": 195,
    "Äƒ": 196,
    "Ä„": 197,
    "Ä…": 198,
    "Ä†": 199,
    "Ä‡": 200,
    "Äˆ": 201,
    "Ä‰": 202,
    "ÄŠ": 203,
    "Ä‹": 204,
    "ÄŒ": 205,
    "Ä": 206,
    "ÄŽ": 207,
    "Ä": 208,
    "Ä": 209,
    "Ä‘": 210,
    "Ä’": 211,
    "Ä“": 212,
    "Ä”": 213,
    "Ä•": 214,
    "Ä–": 215,
    "Ä—": 216,
    "Ä˜": 217,
    "Ä™": 218,
    "Äš": 219,
    "Ä›": 220,
    "Äœ": 221,
    "Ä": 222,
    "Äž": 223,
    "ÄŸ": 224,
    "Ä ": 225,
    "Ä¡": 226,
    "Ä¢": 227,
    "Ä£": 228,
    "Ä¤": 229,
    "Ä¥": 230,
    "Ä¦": 231,
    "Ä§": 232,
    "Ä¨": 233,
    "Ä©": 234,
    "Äª": 235,
    "Ä«": 236,
    "Ä¬": 237,
    "Ä­": 238,
    "Ä®": 239,
    "Ä¯": 240,
    "Ä°": 241,
    "Ä±": 242,
    "Ä²": 243,
    "Ä³": 244,
    "Ä´": 245,
    "Äµ": 246,
    "Ä¶": 247,
    "Ä·": 248,
    "Ä¸": 249,
    "Ä¹": 250,
    "Äº": 251,
    "Ä»": 252,
    "Ä¼": 253,
    "Ä½": 254,
    "Ä¾": 255,
    "Ä¿": 256,
    "Å€": 257,
    "Å": 258,
    "Å‚": 259,
    "Åƒ": 260,
    "Ä (": 261,
    "Ä )": 262,
    "Ä .": 263,
    "er": 264,
    "on": 265,
    "re": 266,
    "in": 267,
    "Ä t": 268,
    "Ä ,": 269,
    "at": 270,
    "Ä $": 271,
    "Ä s": 272,
    "Ä =": 273,
    "Ä ;": 274,
    "en": 275,
    "Ä c": 276,
    "Ä i": 277,
    "et": 278,
    "Ä a": 279,
    "or": 280,
    "es": 281,
    "Ä Ä ": 282,
    "Ä re": 283,
    "Ä f": 284,
    "ion": 285,
    "Ä th": 286,
    "al": 287,
    "Ä {": 288,
    "Ä }": 289,
    "Ä n": 290,
    "is": 291,
    "el": 292,
    "Ä p": 293,
    "Ä :": 294,
    "ur": 295,
    "Ä '": 296,
    "ar": 297,
    "le": 298,
    "ct": 299,
    "Ä -": 300,
    "am": 301,
    "Ä d": 302,
    "ro": 303,
    "an": 304,
    "it": 305,
    "Ä [": 306,
    "se": 307,
    "Ä ]": 308,
    "Ä if": 309,
    "ing": 310,
    "ce": 311,
    "Ä m": 312,
    "tr": 313,
    "Ä g": 314,
    "Ä \"": 315,
    "Ä in": 316,
    "Ä ->": 317,
    "un": 318,
    "ent": 319,
    "Ä o": 320,
    "urn": 321,
    "ut": 322,
    "de": 323,
    "Ä b": 324,
    "Ä ret": 325,
    "Ä the": 326,
    "Ä return": 327,
    "Ä l": 328,
    "ed": 329,
    "il": 330,
    "Ä v": 331,
    "ul": 332,
    "Ä this": 333,
    "st": 334,
    "ic": 335,
    "Ä get": 336,
    "pt": 337,
    "ex": 338,
    "ame": 339,
    "ate": 340,
    "Ä w": 341,
    "Ä /": 342,
    "ch": 343,
    "ue": 344,
    "as": 345,
    "ag": 346,
    "pe": 347,
    "Ä S": 348,
    "ction": 349,
    "id": 350,
    "em": 351,
    "ot": 352,
    "Ä is": 353,
    "ra": 354,
    "ol": 355,
    "Ä con": 356,
    "Ä sel": 357,
    "Ä to": 358,
    "ew": 359,
    "ig": 360,
    "ad": 361,
    "om": 362,
    "ck": 363,
    "Ä for": 364,
    "Ä self": 365,
    "Ä h": 366,
    "ation": 367,
    "Ä //": 368,
    "od": 369,
    "err": 370,
    "tring": 371,
    "qu": 372,
    "ub": 373,
    "Ä 0": 374,
    "ption": 375,
    "ist": 376,
    "Ä Ä Ä Ä ": 377,
    "ab": 378,
    "um": 379,
    "Ä *": 380,
    "im": 381,
    "In": 382,
    "lo": 383,
    "Ä st": 384,
    "Ä C": 385,
    "ect": 386,
    "ter": 387,
    "ype": 388,
    "Ä _": 389,
    "ode": 390,
    "alue": 391,
    "Ä an": 392,
    "Ä err": 393,
    "Ä new": 394,
    "est": 395,
    "ata": 396,
    "Ä +": 397,
    "ile": 398,
    "Ä T": 399,
    "Ä res": 400,
    "Ä !": 401,
    "ey": 402,
    "ess": 403,
    "Ä 1": 404,
    "Ä >": 405,
    "ult": 406,
    "us": 407,
    "ext": 408,
    "end": 409,
    "age": 410,
    "Ä <": 411,
    "pl": 412,
    "--": 413,
    "ers": 414,
    "Ä el": 415,
    "up": 416,
    "Ä k": 417,
    "unction": 418,
    "Ä ar": 419,
    "ull": 420,
    "ath": 421,
    "Ä ==": 422,
    "Ä N": 423,
    "Ex": 424,
    "Ä e": 425,
    "Re": 426,
    "iv": 427,
    "ass": 428,
    "able": 429,
    "if": 430,
    "Ä ex": 431,
    "Ä A": 432,
    "Ä tr": 433,
    "Ä of": 434,
    "ray": 435,
    "Ä r": 436,
    "Ä lo": 437,
    "ap": 438,
    "aram": 439,
    "ubl": 440,
    "bj": 441,
    "Con": 442,
    "Ä de": 443,
    "Ä set": 444,
    "Ä function": 445,
    "Ä null": 446,
    "ublic": 447,
    "ase": 448,
    "dd": 449,
    "Ä pro": 450,
    "th": 451,
    "iz": 452,
    "Ä P": 453,
    "all": 454,
    "res": 455,
    "quest": 456,
    "per": 457,
    "put": 458,
    "lass": 459,
    "Ä value": 460,
    "Name": 461,
    "Ä ch": 462,
    "Ä D": 463,
    "and": 464,
    "oun": 465,
    "Ä cont": 466,
    "Ä I": 467,
    "Ä #": 468,
    "Ä else": 469,
    "fig": 470,
    "Ä and": 471,
    "ception": 472,
    "Ä &": 473,
    "int": 474,
    "ment": 475,
    "one": 476,
    "our": 477,
    "Ä F": 478,
    "ore": 479,
    "Ä !=": 480,
    "ir": 481,
    "public": 482,
    "ith": 483,
    "ack": 484,
    "art": 485,
    "Ä not": 486,
    "Ä as": 487,
    "eld": 488,
    "bject": 489,
    "Ä M": 490,
    "ield": 491,
    "row": 492,
    "Ä ::": 493,
    "ime": 494,
    "ib": 495,
    "nt": 496,
    "ach": 497,
    "Ä key": 498,
    "ort": 499,
    "pon": 500,
    "Ä data": 501,
    "ver": 502,
    "Exception": 503,
    "oc": 504,
    "atch": 505,
    "Ä be": 506,
    "fa": 507,
    "Ä name": 508,
    "Ä int": 509,
    "St": 510,
    "Ä L": 511,
    "Ä E": 512,
    "Ä ap": 513,
    "Ä String": 514,
    "Ä nil": 515,
    "Ä =>": 516,
    "ord": 517,
    "Ä it": 518,
    "Ä :=": 519,
    "rom": 520,
    "Ä \\": 521,
    "vi": 522,
    "rr": 523,
    "Ä al": 524,
    "Ä j": 525,
    "Ä array": 526,
    "Ä add": 527,
    "ay": 528,
    "name": 529,
    "ain": 530,
    "Ä O": 531,
    "Ä com": 532,
    "Ä string": 533,
    "Ä R": 534,
    "orm": 535,
    "def": 536,
    "ve": 537,
    "os": 538,
    "ang": 539,
    "Ä Ä Ä Ä Ä Ä Ä Ä ": 540,
    "stan": 541,
    "set": 542,
    "ow": 543,
    "alse": 544,
    "ild": 545,
    "eth": 546,
    "rent": 547,
    "Id": 548,
    "li": 549,
    "ser": 550,
    "unc": 551,
    "ource": 552,
    "----": 553,
    "ize": 554,
    "Ä error": 555,
    "op": 556,
    "ec": 557,
    "ine": 558,
    "Type": 559,
    "ity": 560,
    "dex": 561,
    "Ä len": 562,
    "Ä result": 563,
    "gs": 564,
    "Ä Ä Ä ": 565,
    "ri": 566,
    "alid": 567,
    "rror": 568,
    "Ä var": 569,
    "Ä en": 570,
    "Ä |": 571,
    "ethod": 572,
    "ptions": 573,
    "Ä fin": 574,
    "ponse": 575,
    "Ä 2": 576,
    "ire": 577,
    "Ä or": 578,
    "Ä param": 579,
    "he": 580,
    "ak": 581,
    "Ä u": 582,
    "rit": 583,
    "Ä us": 584,
    "Ä file": 585,
    "fer": 586,
    "Ä U": 587,
    "get": 588,
    "Ä path": 589,
    "Ä request": 590,
    "con": 591,
    "ount": 592,
    "stance": 593,
    "ure": 594,
    "Ä app": 595,
    "Ä out": 596,
    "Ä &&": 597,
    "Ä with": 598,
    "Ä None": 599,
    "Ä wh": 600,
    "ok": 601,
    "reate": 602,
    "Ä on": 603,
    "Ä throw": 604,
    "Ä B": 605,
    "ies": 606,
    "Res": 607,
    "ition": 608,
    "Ä str": 609,
    "Ä stat": 610,
    "Ä G": 611,
    "Ä id": 612,
    "Ä log": 613,
    "cess": 614,
    "essage": 615,
    "vent": 616,
    "fo": 617,
    "Ä type": 618,
    "Ä x": 619,
    "Value": 620,
    "act": 621,
    "Ä at": 622,
    "ace": 623,
    "ute": 624,
    "ip": 625,
    "Pro": 626,
    "ery": 627,
    "Ä from": 628,
    "Ä false": 629,
    "ory": 630,
    "==": 631,
    "Ä @": 632,
    "vice": 633,
    "ans": 634,
    "Ä by": 635,
    "**": 636,
    "ug": 637,
    "Ä true": 638,
    "ator": 639,
    "Ä un": 640,
    "ust": 641,
    "Ä config": 642,
    "fault": 643,
    "func": 644,
    "Ä col": 645,
    "Ä form": 646,
    "ht": 647,
    "Ä case": 648,
    "ial": 649,
    "ument": 650,
    "ax": 651,
    "Ä field": 652,
    "Key": 653,
    "ER": 654,
    "port": 655,
    "roup": 656,
    "Ä In": 657,
    "gth": 658,
    "out": 659,
    "Cont": 660,
    "Ä fil": 661,
    "Ä cur": 662,
    "ress": 663,
    "En": 664,
    "trib": 665,
    "Ä list": 666,
    "Ä class": 667,
    "Error": 668,
    "ost": 669,
    "Ä H": 670,
    "ail": 671,
    "pert": 672,
    "ON": 673,
    "sh": 674,
    "Ä pre": 675,
    "lient": 676,
    "Ä y": 677,
    "Ä W": 678,
    "Ä end": 679,
    "uild": 680,
    "Ä mod": 681,
    "List": 682,
    "pr": 683,
    "ead": 684,
    "pro": 685,
    "Ar": 686,
    "form": 687,
    "ive": 688,
    "ast": 689,
    "ated": 690,
    "Request": 691,
    "Ä ?": 692,
    "ger": 693,
    "Set": 694,
    "Ä se": 695,
    "uf": 696,
    "ix": 697,
    "try": 698,
    "Ä sh": 699,
    "alu": 700,
    "str": 701,
    "Ä options": 702,
    "Ä ser": 703,
    "ifi": 704,
    "pec": 705,
    "IN": 706,
    "Ä method": 707,
    "ener": 708,
    "Ä im": 709,
    "code": 710,
    "Ä has": 711,
    "date": 712,
    "00": 713,
    "Ä append": 714,
    "ly": 715,
    "Ä that": 716,
    "og": 717,
    "url": 718,
    "Ä qu": 719,
    "Ä sub": 720,
    "Ä ro": 721,
    "ersion": 722,
    "type": 723,
    "ign": 724,
    "ule": 725,
    "ange": 726,
    "Ä final": 727,
    "ind": 728,
    "Ä user": 729,
    "sed": 730,
    "Ä up": 731,
    "Ä we": 732,
    "Ä object": 733,
    "ID": 734,
    "Ä Con": 735,
    "te": 736,
    "ill": 737,
    "Ä %": 738,
    "lock": 739,
    "Ä format": 740,
    "Ä do": 741,
    "esc": 742,
    "Path": 743,
    "ber": 744,
    "Ä call": 745,
    "alues": 746,
    "Ä ||": 747,
    "tt": 748,
    "ler": 749,
    "ight": 750,
    "Data": 751,
    "Ä create": 752,
    "ames": 753,
    "ink": 754,
    "umn": 755,
    "Ä node": 756,
    "Ä ===": 757,
    "De": 758,
    "//": 759,
    "Ä static": 760,
    "Ä item": 761,
    "eck": 762,
    "oint": 763,
    "ces": 764,
    "der": 765,
    "Ä response": 766,
    "Ä ra": 767,
    "file": 768,
    "Ä length": 769,
    "Ä index": 770,
    "cal": 771,
    "ound": 772,
    "ens": 773,
    "To": 774,
    "Ä try": 775,
    "Ä V": 776,
    "Ä all": 777,
    "ork": 778,
    "Ä par": 779,
    "String": 780,
    "ml": 781,
    "Ch": 782,
    "Ä current": 783,
    "ise": 784,
    "ded": 785,
    "Param": 786,
    "Ä start": 787,
    "--------": 788,
    "AT": 789,
    "ole": 790,
    "Ä instance": 791,
    "of": 792,
    "ream": 793,
    "ection": 794,
    "uth": 795,
    "rite": 796,
    "Class": 797,
    "tern": 798,
    "Com": 799,
    "Ä bo": 800,
    "Ä em": 801,
    "ence": 802,
    "path": 803,
    "Ä J": 804,
    "Ä default": 805,
    "lement": 806,
    "ache": 807,
    "elet": 808,
    "Config": 809,
    "Ä input": 810,
    "gument": 811,
    "File": 812,
    "Ä time": 813,
    "ary": 814,
    "ates": 815,
    "son": 816,
    "arent": 817,
    "Ä num": 818,
    "Ä context": 819,
    "ement": 820,
    "low": 821,
    "ere": 822,
    "back": 823,
    "perty": 824,
    "pty": 825,
    "arget": 826,
    "Ser": 827,
    "ected": 828,
    "ication": 829,
    "cl": 830,
    "ide": 831,
    "com": 832,
    "Ä args": 833,
    "are": 834,
    "ask": 835,
    "ave": 836,
    "iven": 837,
    "..": 838,
    "oid": 839,
    "Ä Tr": 840,
    "ove": 841,
    "av": 842,
    "Ä query": 843,
    "ph": 844,
    "Ä match": 845,
    "Ä pr": 846,
    "eter": 847,
    "Ä can": 848,
    "Ä rem": 849,
    "ccess": 850,
    "eturn": 851,
    "Ä map": 852,
    "uct": 853,
    "Ä are": 854,
    "Ä read": 855,
    "key": 856,
    "Ä spec": 857,
    "By": 858,
    "Ä params": 859,
    "ttp": 860,
    "At": 861,
    "RE": 862,
    "Map": 863,
    "Ä given": 864,
    "face": 865,
    "Ä check": 866,
    "irect": 867,
    "Ä Re": 868,
    "to": 869,
    "reak": 870,
    "Ä event": 871,
    "uration": 872,
    "abel": 873,
    "tem": 874,
    "Ä ''": 875,
    "Ä output": 876,
    "valid": 877,
    "yn": 878,
    "yp": 879,
    "Ä url": 880,
    "ep": 881,
    "ST": 882,
    "Ä message": 883,
    "Ä le": 884,
    "oin": 885,
    "Ä pl": 886,
    "tribute": 887,
    "Ä sc": 888,
    "mand": 889,
    "Ä 3": 890,
    "param": 891,
    "data": 892,
    "ession": 893,
    "====": 894,
    "Ä fore": 895,
    "read": 896,
    "terface": 897,
    "Ä break": 898,
    "ings": 899,
    "LE": 900,
    "cord": 901,
    "not": 902,
    "Ä will": 903,
    "fix": 904,
    "war": 905,
    "Ä trans": 906,
    "Node": 907,
    "ge": 908,
    "pace": 909,
    "Ä head": 910,
    "ake": 911,
    "Ä contain": 912,
    "Ä content": 913,
    "Col": 914,
    "function": 915,
    "OR": 916,
    "pos": 917,
    "Ä void": 918,
    "Ä state": 919,
    "irst": 920,
    "Object": 921,
    "rol": 922,
    "Ä valid": 923,
    "Ä values": 924,
    "bug": 925,
    "fin": 926,
    "Ä cl": 927,
    "Qu": 928,
    "elete": 929,
    "Ä element": 930,
    "amp": 931,
    "ong": 932,
    "ict": 933,
    "Ä St": 934,
    "Ä Th": 935,
    "Ä foreach": 936,
    "ject": 937,
    "Ä model": 938,
    "ified": 939,
    "anag": 940,
    "vel": 941,
    "lection": 942,
    "Ä max": 943,
    "nection": 944,
    "load": 945,
    "Ä tok": 946,
    "ob": 947,
    "Ä hand": 948,
    "Ä pos": 949,
    "Time": 950,
    "Of": 951,
    "cc": 952,
    "uilder": 953,
    "ivate": 954,
    "text": 955,
    "cept": 956,
    "time": 957,
    "ME": 958,
    "ms": 959,
    "Ä reg": 960,
    "ash": 961,
    "uffer": 962,
    "Ä size": 963,
    "place": 964,
    "Ä ++": 965,
    "Info": 966,
    "Get": 967,
    "Ä Get": 968,
    "oken": 969,
    "ant": 970,
    "Ä If": 971,
    "__": 972,
    "ody": 973,
    "Field": 974,
    "ock": 975,
    "arsh": 976,
    "Ä text": 977,
    "tx": 978,
    "An": 979,
    "Ä line": 980,
    "Ä code": 981,
    "Ä parent": 982,
    "iew": 983,
    "Un": 984,
    "AR": 985,
    "Add": 986,
    "Ä List": 987,
    "fset": 988,
    "ypes": 989,
    "Return": 990,
    "arch": 991,
    "ree": 992,
    "utes": 993,
    "plate": 994,
    "own": 995,
    "atus": 996,
    "Ä doc": 997,
    "Ä z": 998,
    "Ä use": 999,
    "Ä Set": 1000,
    "Ä __": 1001,
    "Ä raise": 1002,
    "oul": 1003,
    "Ä client": 1004,
    "Ä exist": 1005,
    "ould": 1006,
    "****": 1007,
    "Ä empty": 1008,
    "odel": 1009,
    "mt": 1010,
    "Ä +=": 1011,
    "ations": 1012,
    "AL": 1013,
    "Ä table": 1014,
    "Ä dis": 1015,
    "Index": 1016,
    "sc": 1017,
    "Ä target": 1018,
    "order": 1019,
    "Ä isset": 1020,
    "Ä The": 1021,
    "Ä tem": 1022,
    "ages": 1023,
    "Ä next": 1024,
    "til": 1025,
    "Ä base": 1026,
    "Ä row": 1027,
    "press": 1028,
    "ponent": 1029,
    "olean": 1030,
    "als": 1031,
    "eters": 1032,
    "Ä Object": 1033,
    "Ä filter": 1034,
    "erm": 1035,
    "chem": 1036,
    "sert": 1037,
    "imit": 1038,
    "quire": 1039,
    "les": 1040,
    "Ä group": 1041,
    "Context": 1042,
    "Ä q": 1043,
    "Ä catch": 1044,
    "Ä write": 1045,
    "Element": 1046,
    "Ä tag": 1047,
    "Ä range": 1048,
    "ss": 1049,
    "tected": 1050,
    "ert": 1051,
    "escri": 1052,
    "Ä True": 1053,
    "iss": 1054,
    "sg": 1055,
    "Ä count": 1056,
    "Ä column": 1057,
    "Ä resource": 1058,
    "Ä 4": 1059,
    "ard": 1060,
    "Ä op": 1061,
    "Ä http": 1062,
    "anager": 1063,
    "Response": 1064,
    "par": 1065,
    "eta": 1066,
    "Al": 1067,
    "Ä Error": 1068,
    "ename": 1069,
    "Tr": 1070,
    "Ä public": 1071,
    "ann": 1072,
    "Ä ne": 1073,
    "und": 1074,
    "bo": 1075,
    "Array": 1076,
    "ac": 1077,
    "tes": 1078,
    "Message": 1079,
    "string": 1080,
    "Ä obj": 1081,
    "Ä‰Ä‰": 1082,
    "Ä False": 1083,
    "Ä source": 1084,
    "Code": 1085,
    "Ä run": 1086,
    "Ä part": 1087,
    "ilter": 1088,
    "Ä update": 1089,
    "SE": 1090,
    "riter": 1091,
    "pts": 1092,
    ".'": 1093,
    "yst": 1094,
    "word": 1095,
    "entity": 1096,
    "vert": 1097,
    "list": 1098,
    "UR": 1099,
    "ud": 1100,
    "opy": 1101,
    "PI": 1102,
    "Ä ctx": 1103,
    "Ä find": 1104,
    "64": 1105,
    "class": 1106,
    "verr": 1107,
    "ystem": 1108,
    "Ä parse": 1109,
    "Ä ext": 1110,
    "Ä req": 1111,
    "wargs": 1112,
    "idth": 1113,
    "Group": 1114,
    "ions": 1115,
    "abled": 1116,
    "protected": 1117,
    "red": 1118,
    "State": 1119,
    "Ä !==": 1120,
    "ps": 1121,
    "Ä first": 1122,
    "Ä info": 1123,
    "Ä Res": 1124,
    "val": 1125,
    "array": 1126,
    "plit": 1127,
    "action": 1128,
    "heck": 1129,
    "Ä np": 1130,
    "Ä min": 1131,
    "value": 1132,
    "Event": 1133,
    "ference": 1134,
    "Ä returns": 1135,
    "ther": 1136,
    "ite": 1137,
    "Query": 1138,
    "Ä X": 1139,
    "Ä os": 1140,
    "tributes": 1141,
    "Ä last": 1142,
    "ader": 1143,
    "Hand": 1144,
    "odes": 1145,
    "ION": 1146,
    "Ä token": 1147,
    "perties": 1148,
    "Ä char": 1149,
    "Ä dat": 1150,
    "Ä child": 1151,
    "private": 1152,
    "point": 1153,
    "min": 1154,
    "ia": 1155,
    "Ä service": 1156,
    "EN": 1157,
    "Ä no": 1158,
    "loat": 1159,
    "Ä byte": 1160,
    "Ä comp": 1161,
    "Or": 1162,
    "Ä json": 1163,
    "ify": 1164,
    "ell": 1165,
    "Ä New": 1166,
    "etad": 1167,
    "ote": 1168,
    "Ä sup": 1169,
    "Im": 1170,
    "Ä Ä Ä Ä Ä Ä Ä Ä Ä Ä Ä Ä Ä Ä Ä Ä ": 1171,
    "Ä print": 1172,
    "Ä '/": 1173,
    "ternal": 1174,
    "etadata": 1175,
    "ry": 1176,
    "Ä version": 1177,
    "arshall": 1178,
    "Service": 1179,
    "Item": 1180,
    "pect": 1181,
    "Out": 1182,
    "Ä fl": 1183,
    "ook": 1184,
    "Ä Exception": 1185,
    "Ä Pro": 1186,
    "ren": 1187,
    "print": 1188,
    "##": 1189,
    "With": 1190,
    "Ä local": 1191,
    "ustom": 1192,
    "peration": 1193,
    "Ä logger": 1194,
    "Ä */": 1195,
    "Ä exec": 1196,
    "verride": 1197,
    "Ä debug": 1198,
    ".\"": 1199,
    "ick": 1200,
    "Ä Ar": 1201,
    "use": 1202,
    "Ä block": 1203,
    "Form": 1204,
    "Ä kwargs": 1205,
    "Ä remove": 1206,
    "Ä process": 1207,
    "Ä init": 1208,
    "ync": 1209,
    "Input": 1210,
    "Up": 1211,
    "OD": 1212,
    "cont": 1213,
    "dir": 1214,
    "Ä gener": 1215,
    "Ä throws": 1216,
    "ql": 1217,
    "ush": 1218,
    "Ä clo": 1219,
    "Ä This": 1220,
    "Ä make": 1221,
    "ft": 1222,
    "Ä ab": 1223,
    "ner": 1224,
    "Size": 1225,
    "umber": 1226,
    "Client": 1227,
    "Stream": 1228,
    "ector": 1229,
    "ally": 1230,
    "ature": 1231,
    "link": 1232,
    "Ä join": 1233,
    "Ä msg": 1234,
    "ized": 1235,
    "ld": 1236,
    "Ä argument": 1237,
    "annel": 1238,
    "Ä \\\"": 1239,
    "Ä have": 1240,
    "Ä entry": 1241,
    "ices": 1242,
    "chema": 1243,
    "Ä val": 1244,
    "Ä one": 1245,
    "vid": 1246,
    "Ä cache": 1247,
    "Not": 1248,
    "ister": 1249,
    "Ä boolean": 1250,
    "ifier": 1251,
    "work": 1252,
    "Result": 1253,
    "plication": 1254,
    "uble": 1255,
    "tings": 1256,
    "Ä names": 1257,
    "AN": 1258,
    "led": 1259,
    "SS": 1260,
    "Ä ad": 1261,
    "Ä load": 1262,
    "Builder": 1263,
    "md": 1264,
    "From": 1265,
    "rap": 1266,
    "Ä status": 1267,
    "CT": 1268,
    "Ä specified": 1269,
    "ackage": 1270,
    "----------------": 1271,
    "Ä property": 1272,
    "ape": 1273,
    "eight": 1274,
    "Ä Ser": 1275,
    "Ä instanceof": 1276,
    "inue": 1277,
    "Ä ref": 1278,
    "Ä rel": 1279,
    "itle": 1280,
    "Ä any": 1281,
    "its": 1282,
    "ply": 1283,
    "Ä tra": 1284,
    "IT": 1285,
    "Ä Com": 1286,
    "ateg": 1287,
    "ength": 1288,
    "add": 1289,
    "For": 1290,
    "mp": 1291,
    "irectory": 1292,
    "col": 1293,
    "Ap": 1294,
    "lob": 1295,
    "Ä command": 1296,
    "Ä must": 1297,
    "Ä equ": 1298,
    "User": 1299,
    "Ä number": 1300,
    "Ä action": 1301,
    "pend": 1302,
    "arn": 1303,
    "Util": 1304,
    "Method": 1305,
    "ope": 1306,
    "////": 1307,
    "Ä other": 1308,
    "finition": 1309,
    "rc": 1310,
    "Ä keys": 1311,
    "Ä Ex": 1312,
    "ark": 1313,
    "ugin": 1314,
    "Th": 1315,
    "Ä image": 1316,
    "ude": 1317,
    "Manager": 1318,
    "Ä db": 1319,
    "Options": 1320,
    "rl": 1321,
    "Ä getS": 1322,
    "Ä while": 1323,
    "Ä continue": 1324,
    "Ä fmt": 1325,
    "Ä func": 1326,
    "Ä elif": 1327,
    "Ä act": 1328,
    "Ä exp": 1329,
    "log": 1330,
    "enc": 1331,
    "eg": 1332,
    "Loc": 1333,
    "Ä errors": 1334,
    "Ä except": 1335,
    "instance": 1336,
    "pression": 1337,
    "Ä only": 1338,
    "Ä session": 1339,
    "ee": 1340,
    "ags": 1341,
    "Ä pass": 1342,
    "Log": 1343,
    "attern": 1344,
    "Token": 1345,
    "ments": 1346,
    "Ä when": 1347,
    "Ä callback": 1348,
    "ret": 1349,
    "Content": 1350,
    "Ä Un": 1351,
    "Ä sw": 1352,
    "Ä order": 1353,
    "ich": 1354,
    "user": 1355,
    "Returns": 1356,
    "Ä auth": 1357,
    "Interface": 1358,
    "ance": 1359,
    "ING": 1360,
    "Ä build": 1361,
    "yle": 1362,
    "Ä page": 1363,
    "sum": 1364,
    "Ä root": 1365,
    "Ä send": 1366,
    "util": 1367,
    "Ä into": 1368,
    "line": 1369,
    "Params": 1370,
    "ool": 1371,
    "Ä ...": 1372,
    "actory": 1373,
    "Ä En": 1374,
    "Ä `": 1375,
    "info": 1376,
    "Ä Ä Ä Ä Ä ": 1377,
    "Ä put": 1378,
    "Argument": 1379,
    "Count": 1380,
    "Ä 5": 1381,
    "ping": 1382,
    "ors": 1383,
    "Ä offset": 1384,
    "ie": 1385,
    "Pre": 1386,
    "Ä File": 1387,
    "Table": 1388,
    "escription": 1389,
    "Ä files": 1390,
    "toc": 1391,
    "Ä found": 1392,
    "Ä sy": 1393,
    "Ä vari": 1394,
    "ou": 1395,
    "Property": 1396,
    "cur": 1397,
    "On": 1398,
    "Ä used": 1399,
    "Ä iter": 1400,
    "var": 1401,
    "quired": 1402,
    "ff": 1403,
    "'t": 1404,
    "fore": 1405,
    "tocol": 1406,
    "Ä stream": 1407,
    "Ä \"\"": 1408,
    "Ä record": 1409,
    "Ä should": 1410,
    "iled": 1411,
    "Ä Type": 1412,
    "SON": 1413,
    "Head": 1414,
    "olic": 1415,
    "Ä split": 1416,
    "Ä body": 1417,
    "ources": 1418,
    "tml": 1419,
    "Resource": 1420,
    "ution": 1421,
    "ccount": 1422,
    "PE": 1423,
    "fter": 1424,
    "config": 1425,
    "Ä bool": 1426,
    "Ä so": 1427,
    "Ä sec": 1428,
    "Trans": 1429,
    "Ä delete": 1430,
    "Ä float": 1431,
    "========": 1432,
    "Ä label": 1433,
    "ond": 1434,
    "()": 1435,
    "Ä Add": 1436,
    "itch": 1437,
    "Ä server": 1438,
    "Ä Override": 1439,
    "Ä work": 1440,
    "CE": 1441,
    "Instance": 1442,
    "Ä cal": 1443,
    "Version": 1444,
    "Ä Value": 1445,
    "Ä header": 1446,
    "Output": 1447,
    "TE": 1448,
    "iles": 1449,
    "Ä using": 1450,
    "ension": 1451,
    "stant": 1452,
    "Ä replace": 1453,
    "abase": 1454,
    "ueue": 1455,
    "Ä option": 1456,
    "RO": 1457,
    "map": 1458,
    "Ä connection": 1459,
    "dition": 1460,
    "printf": 1461,
    "ual": 1462,
    "As": 1463,
    "Ä del": 1464,
    "ines": 1465,
    "Ä fields": 1466,
    "size": 1467,
    "ish": 1468,
    "plet": 1469,
    "TT": 1470,
    "formation": 1471,
    "Ä parameters": 1472,
    "Ä back": 1473,
    "rame": 1474,
    "Ä K": 1475,
    "Ä view": 1476,
    "Call": 1477,
    "Ä container": 1478,
    "Ä host": 1479,
    "ification": 1480,
    "ous": 1481,
    "Status": 1482,
    "raph": 1483,
    "pre": 1484,
    "ript": 1485,
    "ists": 1486,
    "Ä conn": 1487,
    "Model": 1488,
    "Url": 1489,
    "inal": 1490,
    "Ä API": 1491,
    "Ä which": 1492,
    "Ä --": 1493,
    "Column": 1494,
    "ML": 1495,
    "Ä but": 1496,
    "vider": 1497,
    "older": 1498,
    "Attribute": 1499,
    "Ä opts": 1500,
    "Ä arg": 1501,
    "LO": 1502,
    "Handler": 1503,
    "Lo": 1504,
    "Ä De": 1505,
    "UL": 1506,
    "ific": 1507,
    "Ä then": 1508,
    "Ä date": 1509,
    "Ä Array": 1510,
    "ample": 1511,
    "ric": 1512,
    "ules": 1513,
    "Em": 1514,
    "Ä loc": 1515,
    "Ä items": 1516,
    "Ä each": 1517,
    "field": 1518,
    "Ä cre": 1519,
    "Ä exception": 1520,
    "ainer": 1521,
    "Ä entity": 1522,
    "ible": 1523,
    "Ä sort": 1524,
    "Ä long": 1525,
    "Enabled": 1526,
    "ov": 1527,
    "Text": 1528,
    "Ä ok": 1529,
    "omain": 1530,
    "orage": 1531,
    "}\"": 1532,
    "rib": 1533,
    "Ä per": 1534,
    "ative": 1535,
    "Ä api": 1536,
    "Var": 1537,
    "ables": 1538,
    "roller": 1539,
    "ait": 1540,
    "Sc": 1541,
    "Ä template": 1542,
    "Ä comm": 1543,
    "Ä filename": 1544,
    "Ä >=": 1545,
    "=\"": 1546,
    "Ä ind": 1547,
    "Ä \"\\": 1548,
    "Ä isinstance": 1549,
    "Ä env": 1550,
    "Ä ass": 1551,
    "Ä does": 1552,
    "Par": 1553,
    "Ä inter": 1554,
    "Sh": 1555,
    "Valid": 1556,
    "Names": 1557,
    "Ä Col": 1558,
    "cod": 1559,
    "Ä interface": 1560,
    "az": 1561,
    "Ä task": 1562,
    "angu": 1563,
    "Check": 1564,
    "Ä resol": 1565,
    "Ä attribute": 1566,
    "Ä Request": 1567,
    "otal": 1568,
    "Ä parameter": 1569,
    "Ä dest": 1570,
    "clude": 1571,
    "etwork": 1572,
    "Ä sign": 1573,
    "reg": 1574,
    "tract": 1575,
    "dict": 1576,
    "Ä dir": 1577,
    "32": 1578,
    "ause": 1579,
    "ont": 1580,
    "resent": 1581,
    "lect": 1582,
    "erge": 1583,
    "ET": 1584,
    "Str": 1585,
    "Filter": 1586,
    "Ä .=": 1587,
    "ization": 1588,
    "version": 1589,
    "olicy": 1590,
    "etric": 1591,
    "Ä old": 1592,
    "etch": 1593,
    "io": 1594,
    "All": 1595,
    "entifier": 1596,
    "Ä su": 1597,
    "aint": 1598,
    "Ä ID": 1599,
    "gn": 1600,
    "play": 1601,
    "elper": 1602,
    "Ä post": 1603,
    "Ä attr": 1604,
    "Ä module": 1605,
    "Ä equals": 1606,
    "Ä headers": 1607,
    "Ä need": 1608,
    "Tra": 1609,
    "Ä copy": 1610,
    "01": 1611,
    "object": 1612,
    "Ä buffer": 1613,
    "her": 1614,
    "index": 1615,
    "Pos": 1616,
    "Reg": 1617,
    "Ä UR": 1618,
    "Ä cle": 1619,
    "Ä switch": 1620,
    "Dir": 1621,
    "Entry": 1622,
    "Ä search": 1623,
    "Ä Y": 1624,
    "Ä where": 1625,
    "Date": 1626,
    "mb": 1627,
    "ntity": 1628,
    "ava": 1629,
    "Format": 1630,
    "po": 1631,
    "oot": 1632,
    "Ä prefix": 1633,
    "Ä point": 1634,
    "Ä Map": 1635,
    "error": 1636,
    "by": 1637,
    "End": 1638,
    "DE": 1639,
    "Ä handle": 1640,
    "etail": 1641,
    "AME": 1642,
    "over": 1643,
    "********": 1644,
    "Ä double": 1645,
    "Ä imp": 1646,
    "Ä orig": 1647,
    "Ä <=": 1648,
    "Cache": 1649,
    "uri": 1650,
    "Ä hash": 1651,
    "Ä def": 1652,
    "FI": 1653,
    "Ä ren": 1654,
    "group": 1655,
    "Ä fe": 1656,
    "apt": 1657,
    "Ä tim": 1658,
    "Ä Class": 1659,
    "Ä We": 1660,
    "Ä non": 1661,
    "Parameter": 1662,
    "Ä mem": 1663,
    "Ä configuration": 1664,
    "Ä IO": 1665,
    "Ä 6": 1666,
    "iver": 1667,
    "Ä document": 1668,
    "Dis": 1669,
    "Line": 1670,
    "Ä >>": 1671,
    "ready": 1672,
    "old": 1673,
    "Ä operation": 1674,
    "Ä ed": 1675,
    "Sub": 1676,
    "Ä attributes": 1677,
    "Ä sets": 1678,
    "Ä custom": 1679,
    "Ä Ch": 1680,
    "Ä buf": 1681,
    "Le": 1682,
    "unk": 1683,
    "Create": 1684,
    "Start": 1685,
    "Ä results": 1686,
    "ormal": 1687,
    "cket": 1688,
    "Ä getP": 1689,
    "Ä aw": 1690,
    "rid": 1691,
    "Ä link": 1692,
    "UT": 1693,
    "Ä sp": 1694,
    "\\\\": 1695,
    "Ä open": 1696,
    "struct": 1697,
    "xy": 1698,
    "Ä allow": 1699,
    "indow": 1700,
    "anguage": 1701,
    "Int": 1702,
    "Ä was": 1703,
    "Ä exists": 1704,
    "Ä src": 1705,
    "ical": 1706,
    "Ä store": 1707,
    "ailed": 1708,
    "Ä util": 1709,
    "ialize": 1710,
    "mod": 1711,
    "Ä av": 1712,
    "}'": 1713,
    "ingle": 1714,
    "Ä tc": 1715,
    "Ä Ap": 1716,
    "sub": 1717,
    "Ä resp": 1718,
    "Ä job": 1719,
    "Ä rule": 1720,
    "Ä ac": 1721,
    "uster": 1722,
    "Ä getName": 1723,
    "posit": 1724,
    "Ä 8": 1725,
    "item": 1726,
    "af": 1727,
    "Ä 10": 1728,
    "Ä html": 1729,
    "Auth": 1730,
    "Ä bytes": 1731,
    "gnore": 1732,
    "Factory": 1733,
    "ref": 1734,
    "ination": 1735,
    "Ä \\\\": 1736,
    "Ä ag": 1737,
    "YPE": 1738,
    "Mod": 1739,
    "Ä ax": 1740,
    "OL": 1741,
    "ome": 1742,
    "Ä render": 1743,
    "Ä register": 1744,
    "content": 1745,
    "Ä close": 1746,
    "attr": 1747,
    "Ä /*": 1748,
    "Pl": 1749,
    "Configuration": 1750,
    "ailable": 1751,
    "sp": 1752,
    "essages": 1753,
    "Ä position": 1754,
    "Ä red": 1755,
    "Ä port": 1756,
    "</": 1757,
    "Ä address": 1758,
    "Doc": 1759,
    "Ä top": 1760,
    "Se": 1761,
    "Ä toString": 1762,
    "Child": 1763,
    "rop": 1764,
    "Ä convert": 1765,
    "ik": 1766,
    "View": 1767,
    "Block": 1768,
    ");": 1769,
    "Ä Name": 1770,
    "Ä protocol": 1771,
    "Ä Context": 1772,
    "ayer": 1773,
    "TTP": 1774,
    "Ä arguments": 1775,
    "ating": 1776,
    "ATE": 1777,
    "Ä mult": 1778,
    "Ä information": 1779,
    "plic": 1780,
    "AG": 1781,
    "Length": 1782,
    "Ä /**": 1783,
    "NT": 1784,
    "URL": 1785,
    "sel": 1786,
    "ting": 1787,
    "Ä Create": 1788,
    "pected": 1789,
    "Ä properties": 1790,
    "Ä me": 1791,
    "CH": 1792,
    "cre": 1793,
    "Ä component": 1794,
    "ias": 1795,
    "Ä JSON": 1796,
    "Ä cmd": 1797,
    "ported": 1798,
    "Dec": 1799,
    "Ä limit": 1800,
    "Ä level": 1801,
    "ple": 1802,
    "Action": 1803,
    "Ä inst": 1804,
    "Tag": 1805,
    "Ä LO": 1806,
    "'s": 1807,
    "exists": 1808,
    "ucket": 1809,
    "let": 1810,
    "itor": 1811,
    "ice": 1812,
    "teger": 1813,
    "we": 1814,
    "Ä assert": 1815,
    "Ä Cont": 1816,
    "Ä push": 1817,
    "Ä already": 1818,
    "notation": 1819,
    "lobal": 1820,
    "UE": 1821,
    "estamp": 1822,
    "ures": 1823,
    "izer": 1824,
    "Ä co": 1825,
    "air": 1826,
    "Ä Log": 1827,
    "duct": 1828,
    "loc": 1829,
    "Source": 1830,
    "Ä raw": 1831,
    "Ä ()": 1832,
    "Ä marshall": 1833,
    "kip": 1834,
    "Ä width": 1835,
    "Ä execute": 1836,
    "Tem": 1837,
    "Ä handler": 1838,
    "Ä after": 1839,
    "ermiss": 1840,
    "Component": 1841,
    "Ä test": 1842,
    "Ä pop": 1843,
    "Ä ph": 1844,
    "ped": 1845,
    "Ä you": 1846,
    "Ä sql": 1847,
    "pare": 1848,
    "Ä collection": 1849,
    "Ä Ä Ä Ä Ä Ä Ä Ä Ä ": 1850,
    "Marshall": 1851,
    "Definition": 1852,
    "Ä tmp": 1853,
    "Number": 1854,
    "pository": 1855,
    "PT": 1856,
    "que": 1857,
    "Ä cor": 1858,
    "ayload": 1859,
    "Ä IOException": 1860,
    "ocket": 1861,
    "Access": 1862,
    "Gener": 1863,
    "Header": 1864,
    "Ä before": 1865,
    "Ä const": 1866,
    "Ä directory": 1867,
    "Default": 1868,
    "cale": 1869,
    ">'": 1870,
    "Ad": 1871,
    "OM": 1872,
    "idd": 1873,
    "Ä provi": 1874,
    "Ä Ä‰Ä‰": 1875,
    "And": 1876,
    "Sel": 1877,
    "ArgumentException": 1878,
    "Ä over": 1879,
    "AD": 1880,
    "ategory": 1881,
    "oci": 1882,
    "count": 1883,
    "for": 1884,
    "Ä matches": 1885,
    "default": 1886,
    "Address": 1887,
    "way": 1888,
    "ility": 1889,
    "quence": 1890,
    "Update": 1891,
    "Buffer": 1892,
    "check": 1893,
    "Ä warn": 1894,
    "Option": 1895,
    "max": 1896,
    "len": 1897,
    "Ä more": 1898,
    "raw": 1899,
    "ys": 1900,
    "Ä dif": 1901,
    "ribe": 1902,
    "Ä Config": 1903,
    "Ä channel": 1904,
    "Exec": 1905,
    "Ä temp": 1906,
    "pen": 1907,
    "New": 1908,
    "Ä plugin": 1909,
    "Ä Data": 1910,
    "uid": 1911,
    "gin": 1912,
    "iron": 1913,
    "Ä contains": 1914,
    "Ä there": 1915,
    "match": 1916,
    "ton": 1917,
    "with": 1918,
    "Be": 1919,
    "ined": 1920,
    "Empty": 1921,
    "Ä An": 1922,
    "Ä save": 1923,
    "Ä ver": 1924,
    "label": 1925,
    "Ä Err": 1926,
    "Ä getC": 1927,
    "undle": 1928,
    "Ä Key": 1929,
    "Ä import": 1930,
    "Ä required": 1931,
    "rix": 1932,
    "Rem": 1933,
    "cul": 1934,
    "leg": 1935,
    "Ä pattern": 1936,
    "start": 1937,
    "mit": 1938,
    "Ä Run": 1939,
    "ram": 1940,
    "Invalid": 1941,
    "atrix": 1942,
    "Entity": 1943,
    "auth": 1944,
    "view": 1945,
    "Ä route": 1946,
    "Ä settings": 1947,
    "Ä Up": 1948,
    "ron": 1949,
    "Ä rec": 1950,
    "ision": 1951,
    "Connection": 1952,
    "Ä types": 1953,
    "Ä validate": 1954,
    "resh": 1955,
    "Ä Service": 1956,
    "Ref": 1957,
    "Ä struct": 1958,
    "Ä cons": 1959,
    "Ä go": 1960,
    "ities": 1961,
    "Ä Invalid": 1962,
    "Ä schema": 1963,
    "Page": 1964,
    "Ä mode": 1965,
    "db": 1966,
    "Ä same": 1967,
    "args": 1968,
    "base": 1969,
    "####": 1970,
    "Rel": 1971,
    "Values": 1972,
    "names": 1973,
    "OT": 1974,
    "Ä Errorf": 1975,
    "Ä URL": 1976,
    "json": 1977,
    "head": 1978,
    "ient": 1979,
    "edia": 1980,
    "Ä namespace": 1981,
    "Ä metadata": 1982,
    "Ä full": 1983,
    "Ä project": 1984,
    "NAME": 1985,
    "The": 1986,
    "etails": 1987,
    "Part": 1988,
    "Utils": 1989,
    "Spec": 1990,
    "call": 1991,
    "elp": 1992,
    "Ä bind": 1993,
    "Read": 1994,
    "Ä '%": 1995,
    "Cre": 1996,
    "Run": 1997,
    "ging": 1998,
    "Row": 1999,
    "Ä Return": 2000,
    "ential": 2001,
    "Ä left": 2002,
    "Ä uri": 2003,
    "ached": 2004,
    "Ä sprintf": 2005,
    "Ä access": 2006,
    "tries": 2007,
    "lice": 2008,
    "Cl": 2009,
    "params": 2010,
    "null": 2011,
    "ayout": 2012,
    "legal": 2013,
    "coding": 2014,
    "rypt": 2015,
    "Types": 2016,
    "Ä encode": 2017,
    "Ä LOG": 2018,
    "state": 2019,
    "Ä sl": 2020,
    "Ä timeout": 2021,
    "htt": 2022,
    "Ä '/'": 2023,
    "QL": 2024,
    "Ä xml": 2025,
    "Ä may": 2026,
    "Ä select": 2027,
    "Ä cls": 2028,
    "Ä Node": 2029,
    "Ä DE": 2030,
    "igh": 2031,
    "straint": 2032,
    "tra": 2033,
    "lode": 2034,
    "llegal": 2035,
    "Ä color": 2036,
    "Ä now": 2037,
    "bs": 2038,
    "method": 2039,
    "Image": 2040,
    "Null": 2041,
    "Local": 2042,
    "Found": 2043,
    "Ä std": 2044,
    "ater": 2045,
    "FA": 2046,
    "If": 2047,
    "so": 2048,
    "ched": 2049,
    "Pr": 2050,
    "wer": 2051,
    "imple": 2052,
    "LI": 2053,
    "anges": 2054,
    "sure": 2055,
    "ED": 2056,
    "Ä invalid": 2057,
    "Marshaller": 2058,
    "Ä aut": 2059,
    "Match": 2060,
    "lose": 2061,
    "Ä existing": 2062,
    "Ä database": 2063,
    "Ä strings": 2064,
    "Ä dict": 2065,
    "ume": 2066,
    "Ä idx": 2067,
    "Ä ValueError": 2068,
    "sl": 2069,
    "Ä '_": 2070,
    "Ä rep": 2071,
    "Ä height": 2072,
    "Ä Check": 2073,
    "py": 2074,
    "ency": 2075,
    "Ä word": 2076,
    "Ä title": 2077,
    "Ä total": 2078,
    "replace": 2079,
    "from": 2080,
    "Server": 2081,
    "Ä parser": 2082,
    "Function": 2083,
    "vious": 2084,
    "ower": 2085,
    "escript": 2086,
    "stants": 2087,
    "result": 2088,
    "Ä builder": 2089,
    "AB": 2090,
    "ear": 2091,
    "ied": 2092,
    "ning": 2093,
    "vices": 2094,
    "nown": 2095,
    "ounter": 2096,
    "Ä its": 2097,
    "Link": 2098,
    "Ä elseif": 2099,
    "river": 2100,
    "inary": 2101,
    "ics": 2102,
    "Ä generate": 2103,
    "enu": 2104,
    "////////": 2105,
    "Ä returned": 2106,
    "num": 2107,
    "Ä getM": 2108,
    "Ä dec": 2109,
    "Ä stack": 2110,
    "andom": 2111,
    "Ä provided": 2112,
    "Ä ev": 2113,
    "Ä reference": 2114,
    "Record": 2115,
    "options": 2116,
    "Ä location": 2117,
    "Ä been": 2118,
    "Ä '\"": 2119,
    "Ä IN": 2120,
    "table": 2121,
    "->": 2122,
    "SER": 2123,
    "UN": 2124,
    "Ä am": 2125,
    "atic": 2126,
    "ugh": 2127,
    "istry": 2128,
    "mbol": 2129,
    "Ä 100": 2130,
    "cle": 2131,
    "Ä stop": 2132,
    "Ä extend": 2133,
    "Next": 2134,
    "no": 2135,
    "ift": 2136,
    "fg": 2137,
    "12": 2138,
    "format": 2139,
    "Ä parts": 2140,
    "Ä Illegal": 2141,
    "Ä sum": 2142,
    "cs": 2143,
    "Ä Integer": 2144,
    "Ä right": 2145,
    "Ä scope": 2146,
    "box": 2147,
    "Point": 2148,
    "Ä Cms": 2149,
    "message": 2150,
    "Ä tree": 2151,
    "onth": 2152,
    "Ä opt": 2153,
    "Ä style": 2154,
    "ved": 2155,
    "Char": 2156,
    "Session": 2157,
    "Ä fetch": 2158,
    "node": 2159,
    "Bytes": 2160,
    "ique": 2161,
    "Ä transl": 2162,
    "10": 2163,
    "Ä See": 2164,
    "iter": 2165,
    "Ä upd": 2166,
    "Ä Date": 2167,
    "Ä columns": 2168,
    "issing": 2169,
    "Container": 2170,
    "Base": 2171,
    "Ä initial": 2172,
    "Per": 2173,
    "Task": 2174,
    "Rule": 2175,
    "Ä lock": 2176,
    "Ä User": 2177,
    "defined": 2178,
    "Ä shape": 2179,
    "df": 2180,
    "Ä package": 2181,
    "Ä them": 2182,
    "cel": 2183,
    "Ä objects": 2184,
    "assed": 2185,
    "Ä elements": 2186,
    "',": 2187,
    "filter": 2188,
    "Command": 2189,
    "Ä variable": 2190,
    "Ä meta": 2191,
    "AM": 2192,
    "Ä wrap": 2193,
    "Sec": 2194,
    "Ä conf": 2195,
    "be": 2196,
    "Ä Tra": 2197,
    "Ä inv": 2198,
    "Ä nodes": 2199,
    "Ä Collection": 2200,
    "Ä password": 2201,
    "Ä single": 2202,
    "AP": 2203,
    "VER": 2204,
    "Ä second": 2205,
    "Ä \"/": 2206,
    "://": 2207,
    "idget": 2208,
    "Ä trim": 2209,
    "bers": 2210,
    "this": 2211,
    "Ä normal": 2212,
    "Ä \"%": 2213,
    "iable": 2214,
    "escribe": 2215,
    "Ä success": 2216,
    "Ä defin": 2217,
    "='": 2218,
    "aw": 2219,
    "Ä defer": 2220,
    "Ä Im": 2221,
    "ENT": 2222,
    "Listener": 2223,
    "Label": 2224,
    ")\"": 2225,
    "AC": 2226,
    "Process": 2227,
    "iction": 2228,
    "Ä tx": 2229,
    "Ä apply": 2230,
    "Ä let": 2231,
    "ids": 2232,
    "store": 2233,
    "assword": 2234,
    "Ä step": 2235,
    "Ä account": 2236,
    "arshal": 2237,
    "Ä Q": 2238,
    "Ä HTTP": 2239,
    "Ä super": 2240,
    "uture": 2241,
    "fl": 2242,
    "Ä insert": 2243,
    "Prefix": 2244,
    "Ä resolve": 2245,
    "FF": 2246,
    "EL": 2247,
    "CON": 2248,
    "Provider": 2249,
    "Body": 2250,
    "dis": 2251,
    "Ä java": 2252,
    "ten": 2253,
    "Ä uint": 2254,
    "Ä oper": 2255,
    "Ä Do": 2256,
    "Store": 2257,
    "ared": 2258,
    "RI": 2259,
    "round": 2260,
    "Package": 2261,
    "Ä Al": 2262,
    "escriptor": 2263,
    "ironment": 2264,
    "Ä ',": 2265,
    "bser": 2266,
    "Ä mark": 2267,
    "uple": 2268,
    "Ä condition": 2269,
    "Ä prop": 2270,
    "query": 2271,
    "patch": 2272,
    "any": 2273,
    "ULT": 2274,
    "Ä passed": 2275,
    "Helper": 2276,
    "Metadata": 2277,
    "Job": 2278,
    "No": 2279,
    "Ä Par": 2280,
    "Ä vis": 2281,
    "Ä original": 2282,
    "Template": 2283,
    "model": 2284,
    "Ä Z": 2285,
    "Ä Field": 2286,
    "Ä aws": 2287,
    "Ä Not": 2288,
    "Writer": 2289,
    "DB": 2290,
    "Ä seg": 2291,
    "Ä '{": 2292,
    "request": 2293,
    "EX": 2294,
    "Ä fn": 2295,
    "Ä <<": 2296,
    "Properties": 2297,
    "Ä pack": 2298,
    "Ä preg": 2299,
    "Expression": 2300,
    "Ä Pr": 2301,
    "Ä complet": 2302,
    "ertific": 2303,
    "ank": 2304,
    "Ä ignore": 2305,
    "Ä Response": 2306,
    "aces": 2307,
    "Ä alias": 2308,
    "Mode": 2309,
    "Hash": 2310,
    "ODO": 2311,
    "SC": 2312,
    "16": 2313,
    "Fields": 2314,
    "Ä Update": 2315,
    "token": 2316,
    "olume": 2317,
    "igger": 2318,
    "Ä available": 2319,
    "SI": 2320,
    "Ä fail": 2321,
    "nap": 2322,
    "ats": 2323,
    "Ä look": 2324,
    "Ä children": 2325,
    "Target": 2326,
    "status": 2327,
    "enter": 2328,
    "gress": 2329,
    "anged": 2330,
    "redential": 2331,
    "Ä System": 2332,
    "Ä https": 2333,
    "ensions": 2334,
    "Offset": 2335,
    "urity": 2336,
    "Ä '\\": 2337,
    "trans": 2338,
    "Ä tw": 2339,
    "Fl": 2340,
    "Ä include": 2341,
    "Ä tags": 2342,
    "Ä getD": 2343,
    "ted": 2344,
    "ender": 2345,
    "Ä device": 2346,
    "Ä ST": 2347,
    "Ä implement": 2348,
    "hand": 2349,
    "Ä Message": 2350,
    "ta": 2351,
    "types": 2352,
    "Ä than": 2353,
    "files": 2354,
    "Level": 2355,
    "IND": 2356,
    "ely": 2357,
    "Ä org": 2358,
    "Ä ip": 2359,
    "Iter": 2360,
    "Ä Math": 2361,
    "Ä lines": 2362,
    "Ä got": 2363,
    "Ä Valid": 2364,
    "Ä pk": 2365,
    "Ä getValue": 2366,
    "Ä charact": 2367,
    "Ä '<": 2368,
    "ences": 2369,
    "ln": 2370,
    "Ä 7": 2371,
    "values": 2372,
    "Ä substr": 2373,
    "etime": 2374,
    "Root": 2375,
    "Ä begin": 2376,
    "ds": 2377,
    "down": 2378,
    "Ä definition": 2379,
    "Ä At": 2380,
    "Ä getMessage": 2381,
    "Ä protocolMarshaller": 2382,
    "Ä DB": 2383,
    "Width": 2384,
    "Ä payload": 2385,
    "iod": 2386,
    "ns": 2387,
    "gine": 2388,
    "Ä queue": 2389,
    "alt": 2390,
    "imary": 2391,
    "ollow": 2392,
    "Ä sb": 2393,
    "ublish": 2394,
    "Ä py": 2395,
    "Keys": 2396,
    "pth": 2397,
    "Ä Ä Ä Ä Ä Ä Ä Ä Ä Ä Ä Ä ": 2398,
    "TYPE": 2399,
    "Ä '-": 2400,
    "ories": 2401,
    "Parameters": 2402,
    "Ä att": 2403,
    "Reference": 2404,
    "Ä show": 2405,
    "Ä represent": 2406,
    "Ä ArrayList": 2407,
    "Cur": 2408,
    "ox": 2409,
    "ince": 2410,
    "Ä dist": 2411,
    "\\\"": 2412,
    "ets": 2413,
    "da": 2414,
    "shot": 2415,
    "Ä previous": 2416,
    "Ä abs": 2417,
    "Ä '.": 2418,
    "PO": 2419,
    "ses": 2420,
    "Work": 2421,
    "imum": 2422,
    "ged": 2423,
    "Ä clear": 2424,
    "api": 2425,
    "flow": 2426,
    "Ä exit": 2427,
    "Callback": 2428,
    "================": 2429,
    "Ä tokens": 2430,
    "cy": 2431,
    "rior": 2432,
    "page": 2433,
    "doc": 2434,
    "aded": 2435,
    "pc": 2436,
    "ether": 2437,
    "Ä RE": 2438,
    "ero": 2439,
    "aster": 2440,
    "Ä chunk": 2441,
    "Ä section": 2442,
    "--------------------------------": 2443,
    "iple": 2444,
    "Ä Client": 2445,
    "Ä enc": 2446,
    "Ä depend": 2447,
    "Order": 2448,
    "Case": 2449,
    "ran": 2450,
    "atabase": 2451,
    "keys": 2452,
    "ier": 2453,
    "Ä arr": 2454,
    "TH": 2455,
    "ling": 2456,
    "Ä For": 2457,
    "rag": 2458,
    "Act": 2459,
    "wise": 2460,
    "Ä domain": 2461,
    "ersist": 2462,
    "return": 2463,
    "Ä dim": 2464,
    "Inter": 2465,
    "loy": 2466,
    "sor": 2467,
    "Ä 9": 2468,
    "length": 2469,
    "sing": 2470,
    "Tree": 2471,
    "context": 2472,
    "/'": 2473,
    "Ä Hash": 2474,
    "ampl": 2475,
    "verse": 2476,
    "Ä description": 2477,
    "Ä role": 2478,
    "Ä Send": 2479,
    "ointer": 2480,
    "Ä term": 2481,
    "Ext": 2482,
    "Ä network": 2483,
    "Ä cell": 2484,
    "headers": 2485,
    "ade": 2486,
    "apter": 2487,
    "Ä skip": 2488,
    "Ä bound": 2489,
    "ular": 2490,
    "Ä \"'": 2491,
    "Ä transaction": 2492,
    "cache": 2493,
    "Ä endpoint": 2494,
    "Ä decode": 2495,
    "vers": 2496,
    ":'": 2497,
    "Attributes": 2498,
    "11": 2499,
    "HP": 2500,
    "AX": 2501,
    "Ä storage": 2502,
    "This": 2503,
    "Ä Delete": 2504,
    "http": 2505,
    ")'": 2506,
    "pute": 2507,
    "lease": 2508,
    "Ä Runtime": 2509,
    "Ä transform": 2510,
    "Ä based": 2511,
    "Ä bot": 2512,
    "afe": 2513,
    "Reader": 2514,
    "ynch": 2515,
    "Ä lat": 2516,
    "nect": 2517,
    "Ä writ": 2518,
    "Document": 2519,
    "Is": 2520,
    "Ä application": 2521,
    "Ä created": 2522,
    "Ä ow": 2523,
    "Err": 2524,
    "Ä By": 2525,
    "Ä Reg": 2526,
    "Ä io": 2527,
    "parator": 2528,
    "Ä wait": 2529,
    "riteria": 2530,
    "Lock": 2531,
    "Collection": 2532,
    "Ä relation": 2533,
    "LA": 2534,
    "Ä failed": 2535,
    "amb": 2536,
    "Ä just": 2537,
    "ookie": 2538,
    "55": 2539,
    "ma": 2540,
    "Ä Http": 2541,
    "Ä starts": 2542,
    "ertificate": 2543,
    "du": 2544,
    "Ä want": 2545,
    "Ä also": 2546,
    "ike": 2547,
    "Ä day": 2548,
    "Ä change": 2549,
    "ilename": 2550,
    "napshot": 2551,
    "Ä global": 2552,
    "Ä defined": 2553,
    "azon": 2554,
    "Position": 2555,
    "fs": 2556,
    "API": 2557,
    "ember": 2558,
    "etry": 2559,
    "TER": 2560,
    "Ä lib": 2561,
    "Ä display": 2562,
    "Load": 2563,
    "host": 2564,
    "DI": 2565,
    "Ä called": 2566,
    "process": 2567,
    "Can": 2568,
    "Ä strip": 2569,
    "Init": 2570,
    "oute": 2571,
    "Ä feature": 2572,
    "Ä locale": 2573,
    "cat": 2574,
    "event": 2575,
    "Ä associ": 2576,
    "Ag": 2577,
    "Num": 2578,
    "IP": 2579,
    "Ä bas": 2580,
    "Ä batch": 2581,
    "Policy": 2582,
    "Ä require": 2583,
    "ose": 2584,
    "Ä Is": 2585,
    "mon": 2586,
    "Ä Event": 2587,
    "Ä down": 2588,
    "Ä sys": 2589,
    "Ä methods": 2590,
    "Ä Resource": 2591,
    "Ä Sub": 2592,
    "Ä 12": 2593,
    "Host": 2594,
    "Ä rows": 2595,
    "Ä controller": 2596,
    "Ä It": 2597,
    "Ä Write": 2598,
    "cho": 2599,
    "ynchron": 2600,
    "oolean": 2601,
    "EY": 2602,
    "obj": 2603,
    "Ä Trans": 2604,
    "Ä report": 2605,
    "Ä trace": 2606,
    "rect": 2607,
    "Ä extract": 2608,
    "uffix": 2609,
    "Ass": 2610,
    "Ä '.'": 2611,
    "Ä lower": 2612,
    "Delete": 2613,
    "scri": 2614,
    "Args": 2615,
    "ux": 2616,
    "Port": 2617,
    "Ä {}": 2618,
    "Ä system": 2619,
    "html": 2620,
    "Ä see": 2621,
    "Func": 2622,
    "Ä frame": 2623,
    "Stack": 2624,
    "client": 2625,
    "write": 2626,
    "IL": 2627,
    "Settings": 2628,
    "block": 2629,
    "input": 2630,
    "Ä No": 2631,
    "Ä remote": 2632,
    "Ä writer": 2633,
    "Ä getId": 2634,
    "ermission": 2635,
    "FAULT": 2636,
    "Ä rece": 2637,
    "Ä Sh": 2638,
    "stances": 2639,
    "create": 2640,
    "Ä events": 2641,
    "rough": 2642,
    "18": 2643,
    "utton": 2644,
    "ranch": 2645,
    "Ä unset": 2646,
    "Ä Time": 2647,
    "uch": 2648,
    "title": 2649,
    "Ä thread": 2650,
    "WS": 2651,
    "Ä expression": 2652,
    "Ä language": 2653,
    "Ä axis": 2654,
    "Range": 2655,
    "less": 2656,
    "Ä direct": 2657,
    "Ä className": 2658,
    "icate": 2659,
    "Ä TODO": 2660,
    "eep": 2661,
    "Ä fs": 2662,
    "Ä Rem": 2663,
    "SH": 2664,
    "Ä expected": 2665,
    "Ä Path": 2666,
    "Ä graph": 2667,
    "('": 2668,
    "VAL": 2669,
    "parse": 2670,
    "Ed": 2671,
    "Ä Use": 2672,
    "Ids": 2673,
    "Ä here": 2674,
    "Obj": 2675,
    "mary": 2676,
    "Ä Trace": 2677,
    "Parser": 2678,
    "ins": 2679,
    "part": 2680,
    "run": 2681,
    "etrics": 2682,
    "Ä assign": 2683,
    "php": 2684,
    "Ä Status": 2685,
    "Height": 2686,
    "Ä chain": 2687,
    "Ä encoding": 2688,
    "ATION": 2689,
    "Ä some": 2690,
    "Ä merge": 2691,
    "tag": 2692,
    "roll": 2693,
    "Timeout": 2694,
    "Ä active": 2695,
    "number": 2696,
    "Files": 2697,
    "Ä Option": 2698,
    "Ä email": 2699,
    "cause": 2700,
    "Ä bet": 2701,
    "merge": 2702,
    "Ä resources": 2703,
    "new": 2704,
    "ULL": 2705,
    "ful": 2706,
    "Ä parsed": 2707,
    "BIND": 2708,
    "Ä isEmpty": 2709,
    "Ä extension": 2710,
    "Back": 2711,
    "ODE": 2712,
    "Ä internal": 2713,
    "irt": 2714,
    "Ä reset": 2715,
    "Ä typeof": 2716,
    "ween": 2717,
    "Ä username": 2718,
    "Ä addition": 2719,
    "Ä Read": 2720,
    "Ä clean": 2721,
    "last": 2722,
    "Convert": 2723,
    "Ä because": 2724,
    "update": 2725,
    "ware": 2726,
    "Ä don": 2727,
    "Ä script": 2728,
    "Creates": 2729,
    "image": 2730,
    "Ä done": 2731,
    "structor": 2732,
    "99": 2733,
    "Ä serial": 2734,
    "Location": 2735,
    "sible": 2736,
    "ambda": 2737,
    "init": 2738,
    "BINDING": 2739,
    "response": 2740,
    "Ä Input": 2741,
    "Ä window": 2742,
    "Ä messages": 2743,
    "Ä random": 2744,
    "Ä coord": 2745,
    "{$": 2746,
    "Max": 2747,
    "Ä Form": 2748,
    "exp": 2749,
    "cer": 2750,
    "****************": 2751,
    "gra": 2752,
    "ason": 2753,
    "Ä IllegalArgumentException": 2754,
    "Ä On": 2755,
    "Ä identifier": 2756,
    "igr": 2757,
    "net": 2758,
    "aset": 2759,
    "loud": 2760,
    "inter": 2761,
    "pha": 2762,
    "Ä ins": 2763,
    "rem": 2764,
    "erce": 2765,
    "Sign": 2766,
    "post": 2767,
    "NotFound": 2768,
    "irection": 2769,
    "Ä Query": 2770,
    "Async": 2771,
    "lias": 2772,
    ":\"": 2773,
    "Ä main": 2774,
    "Ä iterator": 2775,
    "Ä cfg": 2776,
    "...": 2777,
    "PAR": 2778,
    "ian": 2779,
    "Ä cannot": 2780,
    "Meta": 2781,
    "ABLE": 2782,
    "Ä bucket": 2783,
    "ROR": 2784,
    "Sets": 2785,
    "Ä Describe": 2786,
    "0000": 2787,
    "Ä slice": 2788,
    "curs": 2789,
    "atures": 2790,
    "Ä accept": 2791,
    "Ä enum": 2792,
    "spec": 2793,
    "idden": 2794,
    "Ä two": 2795,
    "imestamp": 2796,
    "Ä remov": 2797,
    "Ä loop": 2798,
    "UM": 2799,
    "Ä pan": 2800,
    "ump": 2801,
    "Unit": 2802,
    "ccur": 2803,
    "Ä pe": 2804,
    "Ä follow": 2805,
    "oice": 2806,
    "Ä prev": 2807,
    "amed": 2808,
    "Ä help": 2809,
    "greg": 2810,
    "Ä bl": 2811,
    "Ä getF": 2812,
    "Ä <>": 2813,
    "ires": 2814,
    "level": 2815,
    "hash": 2816,
    "ploy": 2817,
    "ivity": 2818,
    "width": 2819,
    "vision": 2820,
    "fields": 2821,
    "cing": 2822,
    "Ä incl": 2823,
    "Ä yield": 2824,
    "uccess": 2825,
    "Ä **": 2826,
    "column": 2827,
    "Impl": 2828,
    "Debug": 2829,
    "eded": 2830,
    "Ä bit": 2831,
    "Ä des": 2832,
    "AGE": 2833,
    "Ä site": 2834,
    "ii": 2835,
    "Ä unit": 2836,
    "Del": 2837,
    "TML": 2838,
    "Ä Sprintf": 2839,
    "imal": 2840,
    "Ä Hand": 2841,
    "reen": 2842,
    "endar": 2843,
    "output": 2844,
    "Ä pool": 2845,
    "ending": 2846,
    "chedule": 2847,
    "br": 2848,
    "RA": 2849,
    "Ä Sc": 2850,
    "Ä Loc": 2851,
    "ges": 2852,
    "Directory": 2853,
    "full": 2854,
    "Ä cluster": 2855,
    "Ä whether": 2856,
    "Inner": 2857,
    "Ä timestamp": 2858,
    "sup": 2859,
    "Ä Returns": 2860,
    "atform": 2861,
    "ured": 2862,
    "Ä real": 2863,
    "Pool": 2864,
    "Ä support": 2865,
    "::": 2866,
    "address": 2867,
    "Ä Ä Ä Ä Ä Ä Ä Ä Ä Ä Ä Ä Ä ": 2868,
    "Ä author": 2869,
    "Ä extra": 2870,
    "IC": 2871,
    "Ä 16": 2872,
    "Ä cs": 2873,
    "Ä mapping": 2874,
    "Ä cb": 2875,
    "stract": 2876,
    "istory": 2877,
    "rel": 2878,
    "Ä comment": 2879,
    "eom": 2880,
    "day": 2881,
    "Ä getB": 2882,
    "dk": 2883,
    "Ä Parse": 2884,
    "Style": 2885,
    "Loader": 2886,
    "Ä without": 2887,
    "Wh": 2888,
    "Ä proxy": 2889,
    "self": 2890,
    "Len": 2891,
    "div": 2892,
    "Ä provider": 2893,
    "co": 2894,
    "iler": 2895,
    "do": 2896,
    "Ä goto": 2897,
    "Ä they": 2898,
    "Ä PHP": 2899,
    "Ä getClass": 2900,
    "Ä net": 2901,
    "xml": 2902,
    "Resol": 2903,
    "Ä esc": 2904,
    "cheme": 2905,
    "ll": 2906,
    "Ä logging": 2907,
    "ND": 2908,
    "Channel": 2909,
    "app": 2910,
    "Ä prepare": 2911,
    "sumer": 2912,
    "ward": 2913,
    "irtual": 2914,
    "ground": 2915,
    "{}": 2916,
    "Ä fix": 2917,
    "Constants": 2918,
    "comp": 2919,
    "pack": 2920,
    "ired": 2921,
    "Ä core": 2922,
    "Ä specific": 2923,
    "js": 2924,
    "Failed": 2925,
    "redentials": 2926,
    "ither": 2927,
    "Ä LA": 2928,
    "Ä destination": 2929,
    "Min": 2930,
    "Ä rules": 2931,
    "(\"": 2932,
    "Controller": 2933,
    ").": 2934,
    "Ä allowed": 2935,
    "Alias": 2936,
    "med": 2937,
    "parent": 2938,
    "Ä contents": 2939,
    "Http": 2940,
    "lib": 2941,
    "ym": 2942,
    "Ä flags": 2943,
    "Ä force": 2944,
    "Comp": 2945,
    "Ä '#": 2946,
    "25": 2947,
    "ulti": 2948,
    "Ä reader": 2949,
    "ived": 2950,
    "Copy": 2951,
    "Ä pol": 2952,
    "Ä paths": 2953,
    "Fe": 2954,
    "ayment": 2955,
    "element": 2956,
    "Color": 2957,
    "andard": 2958,
    "riority": 2959,
    "alk": 2960,
    "Any": 2961,
    "Ä Pre": 2962,
    "heet": 2963,
    "Wrap": 2964,
    "Ä Or": 2965,
    "Exp": 2966,
    "ability": 2967,
    "ogle": 2968,
    "etri": 2969,
    "Ä As": 2970,
    "Ä IP": 2971,
    "current": 2972,
    "Ä about": 2973,
    "Ä To": 2974,
    "Ä common": 2975,
    "Ä Out": 2976,
    "sign": 2977,
    "module": 2978,
    "Search": 2979,
    "ferences": 2980,
    "space": 2981,
    "Ä flag": 2982,
    "Ä console": 2983,
    ">\"": 2984,
    "Ä Method": 2985,
    "JSON": 2986,
    "Ä socket": 2987,
    "Operation": 2988,
    "Ä Default": 2989,
    "Ä utils": 2990,
    "Ä listener": 2991,
    "bed": 2992,
    "eleted": 2993,
    "known": 2994,
    "amples": 2995,
    "Role": 2996,
    "ites": 2997,
    "cent": 2998,
    "Ä Web": 2999,
    "BU": 3000,
    "char": 3001,
    "Gets": 3002,
    "uto": 3003,
    "Identifier": 3004,
    "Cal": 3005,
    "Uri": 3006,
    "Ä like": 3007,
    "Ä Pl": 3008,
    "Ä folder": 3009,
    "Ä Element": 3010,
    "other": 3011,
    "Ä prom": 3012,
    "Ä df": 3013,
    "Ä Param": 3014,
    "encode": 3015,
    "Ä Iter": 3016,
    "Ä product": 3017,
    "Ä layer": 3018,
    "Ä substring": 3019,
    "Ä region": 3020,
    "Ä statement": 3021,
    "gor": 3022,
    "Ä det": 3023,
    "Last": 3024,
    "Ä short": 3025,
    "Ä calcul": 3026,
    "eline": 3027,
    "04": 3028,
    "Ä sm": 3029,
    "fe": 3030,
    "entication": 3031,
    "Account": 3032,
    "AS": 3033,
    "eger": 3034,
    "Ä Dis": 3035,
    "eric": 3036,
    "Ä reflect": 3037,
    "Ä Print": 3038,
    "Limit": 3039,
    "rency": 3040,
    "thon": 3041,
    "Ä profile": 3042,
    "Change": 3043,
    "Ä desc": 3044,
    "LS": 3045,
    "Ä dst": 3046,
    "IG": 3047,
    "iff": 3048,
    "Ä Call": 3049,
    "utable": 3050,
    "trie": 3051,
    "ways": 3052,
    "Val": 3053,
    "Parent": 3054,
    "Ä Gener": 3055,
    "oke": 3056,
    "rice": 3057,
    "Ä gu": 3058,
    "Ä through": 3059,
    "UID": 3060,
    "Internal": 3061,
    "ators": 3062,
    "Ä SQL": 3063,
    "Api": 3064,
    "Ä expr": 3065,
    "Ä mask": 3066,
    "Write": 3067,
    "Ä grid": 3068,
    "dr": 3069,
    "lv": 3070,
    "Ä sure": 3071,
    "search": 3072,
    "Ä perform": 3073,
    "env": 3074,
    "Att": 3075,
    "command": 3076,
    "Ä connect": 3077,
    "Schema": 3078,
    "UP": 3079,
    "Ä trigger": 3080,
    "mine": 3081,
    "Ä pair": 3082,
    "bl": 3083,
    "nel": 3084,
    "root": 3085,
    "Ä between": 3086,
    "Ä gra": 3087,
    "Sup": 3088,
    "Ä unique": 3089,
    "gorith": 3090,
    "Ä addr": 3091,
    "Variable": 3092,
    "achine": 3093,
    "Ä Int": 3094,
    "Ä finally": 3095,
    "Ä added": 3096,
    "Ä dig": 3097,
    "URI": 3098,
    "Ä runtime": 3099,
    "scription": 3100,
    "GER": 3101,
    "Ä sequence": 3102,
    "02": 3103,
    "Ä \",": 3104,
    "miss": 3105,
    "CTION": 3106,
    "ww": 3107,
    "marshal": 3108,
    "Ä undefined": 3109,
    "plied": 3110,
    "pond": 3111,
    "Ä binary": 3112,
    "\",": 3113,
    "IME": 3114,
    "Ä sorted": 3115,
    "Build": 3116,
    "ourse": 3117,
    "SP": 3118,
    "Ä weight": 3119,
    "Module": 3120,
    "Headers": 3121,
    "Ä diff": 3122,
    "Ä Auth": 3123,
    "Ä Id": 3124,
    "Find": 3125,
    "Items": 3126,
    "Ä rest": 3127,
    "izes": 3128,
    "Ä optional": 3129,
    "Ä getType": 3130,
    "ategy": 3131,
    "iddle": 3132,
    "Ä indexOf": 3133,
    "Ä our": 3134,
    "lers": 3135,
    "Ä redirect": 3136,
    "Ä prob": 3137,
    "Ä month": 3138,
    "eners": 3139,
    "Ä member": 3140,
    "OK": 3141,
    "Ä sim": 3142,
    "Ä points": 3143,
    "Ä zip": 3144,
    "atal": 3145,
    "resource": 3146,
    "bserv": 3147,
    "Ä matrix": 3148,
    "ested": 3149,
    "Ä category": 3150,
    "ipe": 3151,
    "Ä variables": 3152,
    "Ä ns": 3153,
    "etermine": 3154,
    "Ä Token": 3155,
    "NS": 3156,
    "Ä gen": 3157,
    "utf": 3158,
    "Ä scale": 3159,
    "Warn": 3160,
    "Ä man": 3161,
    "Ä implode": 3162,
    "System": 3163,
    "Ä Model": 3164,
    "cover": 3165,
    "Ä place": 3166,
    "Ä XML": 3167,
    "source": 3168,
    "lip": 3169,
    "Ä selected": 3170,
    "ermissions": 3171,
    "Ä explode": 3172,
    "Ä vert": 3173,
    "Ä SE": 3174,
    "arg": 3175,
    "Ä Lo": 3176,
    "Ä stats": 3177,
    "Addr": 3178,
    "Ä atom": 3179,
    "Ä until": 3180,
    "Ä getT": 3181,
    "Ä dtype": 3182,
    "Queue": 3183,
    "session": 3184,
    "Json": 3185,
    "Ä Internal": 3186,
    "Descriptor": 3187,
    "mode": 3188,
    "Ä details": 3189,
    "open": 3190,
    "DO": 3191,
    "ictionary": 3192,
    "Ä tuple": 3193,
    "PER": 3194,
    "Ä lambda": 3195,
    "Ä Ä‰": 3196,
    "gr": 3197,
    "Iterator": 3198,
    "vlet": 3199,
    "ateway": 3200,
    "Parse": 3201,
    "template": 3202,
    "Ä strlen": 3203,
    "Ä annotation": 3204,
    "Nodes": 3205,
    "Ä NULL": 3206,
    "Ä plot": 3207,
    "Application": 3208,
    "encies": 3209,
    "Execution": 3210,
    "di": 3211,
    "MENT": 3212,
    "gle": 3213,
    "Ä actual": 3214,
    "bar": 3215,
    "Byte": 3216,
    "INT": 3217,
    "We": 3218,
    "Frame": 3219,
    "ily": 3220,
    "Ä subject": 3221,
    "Ä entries": 3222,
    "akes": 3223,
    "Ä Server": 3224,
    "Ä StringBuilder": 3225,
    "Ä InvalidArgumentException": 3226,
    "Ä retrie": 3227,
    "########": 3228,
    "Ä multiple": 3229,
    "straints": 3230,
    "Ä extends": 3231,
    "Ä Sec": 3232,
    "Mapping": 3233,
    "Pattern": 3234,
    "Ä RuntimeException": 3235,
    "Ä clone": 3236,
    "Ä rout": 3237,
    "Ä private": 3238,
    "prefix": 3239,
    "go": 3240,
    "Ä since": 3241,
    "very": 3242,
    "verter": 3243,
    "Do": 3244,
    "Storage": 3245,
    "Ä tab": 3246,
    "24": 3247,
    "Ä synchron": 3248,
    "Ä labels": 3249,
    "rok": 3250,
    "ls": 3251,
    "Ä groups": 3252,
    "Ä tf": 3253,
    "olute": 3254,
    "Route": 3255,
    "stream": 3256,
    "Annotation": 3257,
    "Ä ids": 3258,
    "Handle": 3259,
    "Ä supported": 3260,
    "ship": 3261,
    "Def": 3262,
    "ced": 3263,
    "GET": 3264,
    "Ä Se": 3265,
    "color": 3266,
    "Ä segment": 3267,
    "gorithm": 3268,
    "lem": 3269,
    "Ä docs": 3270,
    "Ä sent": 3271,
    "Ä factory": 3272,
    "Ä symbol": 3273,
    "Ä collect": 3274,
    "ATH": 3275,
    "position": 3276,
    "notations": 3277,
    "service": 3278,
    "Ä AWS": 3279,
    "aining": 3280,
    "Ä ent": 3281,
    "Vis": 3282,
    "Ä cp": 3283,
    "ymbol": 3284,
    "Ä requests": 3285,
    "Ä year": 3286,
    "Ä State": 3287,
    "Remove": 3288,
    "Seg": 3289,
    "Ä <-": 3290,
    "Description": 3291,
    "['": 3292,
    "Endpoint": 3293,
    "Ä commit": 3294,
    "gram": 3295,
    "Ä sample": 3296,
    "KEY": 3297,
    "Ä track": 3298,
    "target": 3299,
    "Ä retry": 3300,
    "Ä manager": 3301,
    "Ä doesn": 3302,
    "Ä lang": 3303,
    "ases": 3304,
    "Repository": 3305,
    "Ä attach": 3306,
    "tot": 3307,
    "Ä unless": 3308,
    "Ä multi": 3309,
    "Ä asset": 3310,
    "Ä web": 3311,
    "Ä additional": 3312,
    "FO": 3313,
    "Ä datetime": 3314,
    "Ä missing": 3315,
    "Ä ','": 3316,
    "eek": 3317,
    "Ä classes": 3318,
    "items": 3319,
    "Ä cert": 3320,
    "sec": 3321,
    "inate": 3322,
    "Ä possible": 3323,
    "ves": 3324,
    "Ä control": 3325,
    "ountry": 3326,
    "card": 3327,
    "Logger": 3328,
    "Ä policy": 3329,
    "Ä environment": 3330,
    "Ä DEFAULT": 3331,
    "Msg": 3332,
    "etrie": 3333,
    "Ä occur": 3334,
    "One": 3335,
    "bstract": 3336,
    "istr": 3337,
    "now": 3338,
    "andid": 3339,
    "Ä Index": 3340,
    "org": 3341,
    "Transaction": 3342,
    "ynam": 3343,
    "Ä either": 3344,
    "rary": 3345,
    "bose": 3346,
    "Ä cursor": 3347,
    "offset": 3348,
    "Post": 3349,
    "wh": 3350,
    "Ä character": 3351,
    "Ä repository": 3352,
    "cr": 3353,
    "Ä primary": 3354,
    "mark": 3355,
    "Ä Code": 3356,
    "Bind": 3357,
    "rowser": 3358,
    "Ä export": 3359,
    "Ä Base": 3360,
    "50": 3361,
    "actor": 3362,
    "Ä curl": 3363,
    "Ä ast": 3364,
    "Ä '$": 3365,
    "record": 3366,
    "Control": 3367,
    "ng": 3368,
    "qual": 3369,
    "Unable": 3370,
    "App": 3371,
    "Ä signature": 3372,
    "PRO": 3373,
    "header": 3374,
    "EM": 3375,
    "Ä echo": 3376,
    "Ä could": 3377,
    "US": 3378,
    "Ä validation": 3379,
    "Columns": 3380,
    "Bean": 3381,
    "Ä again": 3382,
    "ifiers": 3383,
    "description": 3384,
    "Ä iss": 3385,
    "Only": 3386,
    "Ä ensure": 3387,
    "ANG": 3388,
    "Sp": 3389,
    "Ä ident": 3390,
    "Select": 3391,
    "ese": 3392,
    "Ä et": 3393,
    "callback": 3394,
    "ha": 3395,
    "coder": 3396,
    "Ä off": 3397,
    "DK": 3398,
    "Ä my": 3399,
    "Ä compare": 3400,
    "Top": 3401,
    "Namespace": 3402,
    "Tracing": 3403,
    "dat": 3404,
    "Bundle": 3405,
    "Statement": 3406,
    "Ä Long": 3407,
    "utor": 3408,
    "ycle": 3409,
    "Ä owner": 3410,
    "Ä Boolean": 3411,
    "VE": 3412,
    "tree": 3413,
    "Ä creates": 3414,
    "Ä filters": 3415,
    "Ä Dec": 3416,
    "NO": 3417,
    "Condition": 3418,
    "Ä driver": 3419,
    "Render": 3420,
    "Ä Image": 3421,
    "Ä attrs": 3422,
    "Ä With": 3423,
    "Ä Json": 3424,
    "Ä Sup": 3425,
    "Ä Sdk": 3426,
    "change": 3427,
    "ts": 3428,
    "stall": 3429,
    "Ä present": 3430,
    "Ä Mod": 3431,
    "body": 3432,
    "Ä your": 3433,
    "Ä correct": 3434,
    "Ä dispatch": 3435,
    "Ä warning": 3436,
    "13": 3437,
    "Ä Result": 3438,
    "adding": 3439,
    "Ä bundle": 3440,
    "gener": 3441,
    "Each": 3442,
    "Ä inner": 3443,
    "reshold": 3444,
    "IM": 3445,
    "argument": 3446,
    "Results": 3447,
    "Trace": 3448,
    "cip": 3449,
    "aly": 3450,
    "Ä selector": 3451,
    "ually": 3452,
    "Tags": 3453,
    "Ä example": 3454,
    "Ä keep": 3455,
    "Decl": 3456,
    "UB": 3457,
    "Ä props": 3458,
    "filename": 3459,
    "Ä Page": 3460,
    "14": 3461,
    "20": 3462,
    "Ä TYPE": 3463,
    "section": 3464,
    "idx": 3465,
    "ORM": 3466,
    "Ä defaults": 3467,
    "TracingEnabled": 3468,
    "comment": 3469,
    "Ä within": 3470,
    "Elements": 3471,
    "Ä cached": 3472,
    "calar": 3473,
    "Ä ca": 3474,
    "Ä pkg": 3475,
    "Ä space": 3476,
    "Us": 3477,
    "Ä changes": 3478,
    "Ä pred": 3479,
    "Ä stmt": 3480,
    "Ä md": 3481,
    "option": 3482,
    "plates": 3483,
    "Ä isAny": 3484,
    "ores": 3485,
    "zone": 3486,
    "icode": 3487,
    "Ä Lock": 3488,
    "vm": 3489,
    "tol": 3490,
    "Env": 3491,
    "Ä CON": 3492,
    "fact": 3493,
    "Ow": 3494,
    "Sum": 3495,
    "Ä decl": 3496,
    "Ä Wh": 3497,
    "Ä Command": 3498,
    "Bound": 3499,
    "QU": 3500,
    "me": 3501,
    "Ä Open": 3502,
    "illis": 3503,
    "Ä indent": 3504,
    "acy": 3505,
    "Ä Byte": 3506,
    "CK": 3507,
    "Ä isAnyTracingEnabled": 3508,
    "dim": 3509,
    "build": 3510,
    "Ä layout": 3511,
    "Ä font": 3512,
    "PC": 3513,
    "Box": 3514,
    "ignment": 3515,
    "vis": 3516,
    "////////////////": 3517,
    "ferent": 3518,
    "Ä Le": 3519,
    "ragment": 3520,
    "Ä Doc": 3521,
    "aml": 3522,
    "Ä cap": 3523,
    "Upd": 3524,
    "Ä Buffer": 3525,
    "Ä updated": 3526,
    "Ä Close": 3527,
    "ols": 3528,
    "ialog": 3529,
    "copy": 3530,
    "Ä ${": 3531,
    "Ä \"<": 3532,
    "Ä exc": 3533,
    "Ä '--": 3534,
    "active": 3535,
    "Ä \"\"\"": 3536,
    "MS": 3537,
    "Ä repo": 3538,
    "Ä media": 3539,
    "itude": 3540,
    "Ä otherwise": 3541,
    "Oper": 3542,
    "Conn": 3543,
    "plete": 3544,
    "Mem": 3545,
    "']": 3546,
    "Ä attem": 3547,
    "lines": 3548,
    "Ä running": 3549,
    "Ä changed": 3550,
    "Ä high": 3551,
    "Ä \".": 3552,
    "Ä sig": 3553,
    "Ä Validate": 3554,
    "Ä Table": 3555,
    "ixel": 3556,
    "Ä enumer": 3557,
    "ense": 3558,
    "Ä strpos": 3559,
    "Ä instead": 3560,
    "plicit": 3561,
    "location": 3562,
    "Ä future": 3563,
    "Ä Util": 3564,
    "erson": 3565,
    "Ä Local": 3566,
    "server": 3567,
    "Ä button": 3568,
    "Ä flat": 3569,
    "Ä getPro": 3570,
    "Ä integer": 3571,
    "Enum": 3572,
    "okens": 3573,
    "Ä tt": 3574,
    "ATOR": 3575,
    "msg": 3576,
    "Ä needed": 3577,
    "ernel": 3578,
    "Ä getKey": 3579,
    "Ä TypeError": 3580,
    "Ä Remove": 3581,
    "Ä criteria": 3582,
    "Ä ErrCode": 3583,
    "SO": 3584,
    "ider": 3585,
    "eometry": 3586,
    "CA": 3587,
    "Ä Number": 3588,
    "ERROR": 3589,
    "Ä partition": 3590,
    "Ä edge": 3591,
    "umb": 3592,
    "case": 3593,
    "Author": 3594,
    "limit": 3595,
    "Ä Cal": 3596,
    "Ä rs": 3597,
    "Ä depth": 3598,
    "tom": 3599,
    "15": 3600,
    "Ä Attribute": 3601,
    "Ä ^": 3602,
    "Ä Start": 3603,
    "Ä widget": 3604,
    "Inv": 3605,
    "ives": 3606,
    "Ä matching": 3607,
    "Ä filepath": 3608,
    "Ä Note": 3609,
    "ues": 3610,
    "Wrapper": 3611,
    "connect": 3612,
    "Ä under": 3613,
    "Ä every": 3614,
    "Ä TraceComponent": 3615,
    "Button": 3616,
    "Ä upload": 3617,
    "book": 3618,
    "asure": 3619,
    "chive": 3620,
    "Groups": 3621,
    "Ä delta": 3622,
    "wd": 3623,
    "child": 3624,
    "Extension": 3625,
    "Ä emit": 3626,
    "Ä associated": 3627,
    "ibility": 3628,
    "Cluster": 3629,
    "Agent": 3630,
    "),": 3631,
    "Ä relative": 3632,
    "Ä Output": 3633,
    "Ä zero": 3634,
    "Ä move": 3635,
    "Ä fill": 3636,
    "Ä setting": 3637,
    "azz": 3638,
    "Ä Ä Ä Ä Ä Ä Ä ": 3639,
    "Ä drop": 3640,
    "Atom": 3641,
    "#{": 3642,
    "Ä round": 3643,
    "core": 3644,
    "first": 3645,
    "alys": 3646,
    "Ä once": 3647,
    "upt": 3648,
    "ACK": 3649,
    "Ä popul": 3650,
    "Script": 3651,
    "email": 3652,
    "bound": 3653,
    "Device": 3654,
    "Adds": 3655,
    "Ä auto": 3656,
    "19": 3657,
    "req": 3658,
    "Ä elem": 3659,
    "\"\"": 3660,
    "Ä how": 3661,
    "custom": 3662,
    "Ä flush": 3663,
    "password": 3664,
    "OP": 3665,
    "admin": 3666,
    "Ä Head": 3667,
    "used": 3668,
    "top": 3669,
    "PRE": 3670,
    "Ä compute": 3671,
    "80": 3672,
    "Ä interval": 3673,
    "off": 3674,
    "Ä their": 3675,
    "range": 3676,
    "Ä users": 3677,
    "Open": 3678,
    "Ä models": 3679,
    "(?": 3680,
    "Ä dt": 3681,
    "bit": 3682,
    "acity": 3683,
    "mar": 3684,
    "application": 3685,
    "SION": 3686,
    "uded": 3687,
    "Ä art": 3688,
    "Ä lookup": 3689,
    "Ä DI": 3690,
    "asc": 3691,
    "cessed": 3692,
    "HTTP": 3693,
    "Ä getInstance": 3694,
    "Ä structure": 3695,
    "Ä enabled": 3696,
    "Ä Content": 3697,
    "Ä Double": 3698,
    "Ä URI": 3699,
    "only": 3700,
    "Ä \"-": 3701,
    "crement": 3702,
    "Ä Char": 3703,
    "Ä sol": 3704,
    "Required": 3705,
    "ATA": 3706,
    "33": 3707,
    "Long": 3708,
    "Ä dataset": 3709,
    "jection": 3710,
    "icle": 3711,
    "Ä always": 3712,
    "Ä pod": 3713,
    "ault": 3714,
    "Red": 3715,
    "Ä DateTime": 3716,
    "iteral": 3717,
    "Ä '\\\\": 3718,
    "))": 3719,
    "itive": 3720,
    "herit": 3721,
    "Ä mean": 3722,
    "Ä removed": 3723,
    "Ä draw": 3724,
    "PTION": 3725,
    "Ä operator": 3726,
    "Use": 3727,
    "Ä {}\"": 3728,
    "local": 3729,
    "\\'": 3730,
    "Ph": 3731,
    "just": 3732,
    "delete": 3733,
    "Ä duration": 3734,
    "Ä #{": 3735,
    "ffect": 3736,
    "]+": 3737,
    "Sl": 3738,
    "Ä div": 3739,
    "INE": 3740,
    "Ä NO": 3741,
    "Ä ts": 3742,
    "Ä Throw": 3743,
    "Layout": 3744,
    "bservable": 3745,
    "Ä related": 3746,
    "Ä css": 3747,
    "Domain": 3748,
    "Ä encoded": 3749,
    "Ä amazon": 3750,
    "Ä following": 3751,
    "board": 3752,
    "words": 3753,
    "Fail": 3754,
    "Ä cancel": 3755,
    "Ä Group": 3756,
    "Ä visit": 3757,
    "Ä suffix": 3758,
    "First": 3759,
    "Ä proto": 3760,
    "urrent": 3761,
    "lap": 3762,
    "Ä invalidParams": 3763,
    "Ä requested": 3764,
    "Ä evalu": 3765,
    "ural": 3766,
    "true": 3767,
    "Ä ob": 3768,
    "Av": 3769,
    "Ä alt": 3770,
    "del": 3771,
    "stack": 3772,
    "Plugin": 3773,
    "Ä img": 3774,
    "Ä different": 3775,
    "FILE": 3776,
    "Ignore": 3777,
    "Ä memory": 3778,
    "Language": 3779,
    "Ä ds": 3780,
    "ClientException": 3781,
    "container": 3782,
    "Events": 3783,
    "000": 3784,
    "Ä println": 3785,
    "Ä 201": 3786,
    "22": 3787,
    "lowed": 3788,
    "frame": 3789,
    "Details": 3790,
    "ntax": 3791,
    "Ä sync": 3792,
    "ouse": 3793,
    "ZE": 3794,
    "Ä forEach": 3795,
    "Ä best": 3796,
    "rt": 3797,
    "POST": 3798,
    "Ä install": 3799,
    "roy": 3800,
    "cursive": 3801,
    "Custom": 3802,
    "Ä branch": 3803,
    "sort": 3804,
    "Resources": 3805,
    "Ä vector": 3806,
    "Ä Info": 3807,
    "Ä publish": 3808,
    "uff": 3809,
    "async": 3810,
    "ifest": 3811,
    "Ä fr": 3812,
    "test": 3813,
    "Ä Unmarshal": 3814,
    "Ä typ": 3815,
    "([": 3816,
    "Op": 3817,
    "anner": 3818,
    "Space": 3819,
    "eam": 3820,
    "Ä gr": 3821,
    "Ä uuid": 3822,
    "Struct": 3823,
    "Ä menu": 3824,
    "expected": 3825,
    "Send": 3826,
    "Ä hex": 3827,
    "Ä js": 3828,
    "Window": 3829,
    "Thread": 3830,
    "por": 3831,
    "Ä being": 3832,
    "Ä seq": 3833,
    "ClassName": 3834,
    "Ä concat": 3835,
    "totype": 3836,
    "Ä Task": 3837,
    "opt": 3838,
    "ek": 3839,
    "iate": 3840,
    "Ä Entry": 3841,
    "ipeline": 3842,
    "Attr": 3843,
    "Ä amount": 3844,
    "static": 3845,
    "Ä kind": 3846,
    "Ä 32": 3847,
    "Retrie": 3848,
    "Ä override": 3849,
    "cor": 3850,
    "Ä notification": 3851,
    "Ä synchronized": 3852,
    "Ä records": 3853,
    "Ä upper": 3854,
    "cell": 3855,
    "estination": 3856,
    "Ä Fl": 3857,
    "Ä Non": 3858,
    "Ä hasattr": 3859,
    "access": 3860,
    "Ä chan": 3861,
    "Ä quote": 3862,
    "Ä php": 3863,
    "]'": 3864,
    "CO": 3865,
    "Ind": 3866,
    "Ä Text": 3867,
    "uplic": 3868,
    "Ä getattr": 3869,
    "rows": 3870,
    "ORT": 3871,
    "yles": 3872,
    "Transl": 3873,
    "Ä edit": 3874,
    "Ä setup": 3875,
    "Scope": 3876,
    "Ä Session": 3877,
    "Ä cookie": 3878,
    "Ä period": 3879,
    "Ä dictionary": 3880,
    "Ä SDK": 3881,
    "Mark": 3882,
    "Ä normalize": 3883,
    "Ä instances": 3884,
    "Ä constructor": 3885,
    "Proxy": 3886,
    "Ä Entity": 3887,
    "Ä distance": 3888,
    "Ä Exec": 3889,
    "bytes": 3890,
    "HER": 3891,
    "ithub": 3892,
    "Chain": 3893,
    "Ä comb": 3894,
    "Ä counter": 3895,
    "Active": 3896,
    "Ä href": 3897,
    "Ä persist": 3898,
    "Folder": 3899,
    "HE": 3900,
    "meta": 3901,
    "STR": 3902,
    "Ä external": 3903,
    "Ä he": 3904,
    "Ä Cl": 3905,
    "Network": 3906,
    "ayers": 3907,
    "Generator": 3908,
    "Ä stdout": 3909,
    "Left": 3910,
    "Ä getProperty": 3911,
    "Ä complete": 3912,
    "Password": 3913,
    "Ä Block": 3914,
    "pol": 3915,
    "Locale": 3916,
    "mem": 3917,
    "LECT": 3918,
    "Ä box": 3919,
    "ynamic": 3920,
    "Ä ':'": 3921,
    "decode": 3922,
    "conf": 3923,
    "eries": 3924,
    "Ä login": 3925,
    "ializer": 3926,
    "rec": 3927,
    "Ä dot": 3928,
    "Ä verify": 3929,
    "Ä ends": 3930,
    "Ä bean": 3931,
    "OF": 3932,
    "Ä panic": 3933,
    "ended": 3934,
    "Current": 3935,
    "Ä regex": 3936,
    "Ä both": 3937,
    "tolower": 3938,
    "Ä PAR": 3939,
    "Ä volume": 3940,
    "Ä Ref": 3941,
    "ROM": 3942,
    "GroupName": 3943,
    "Word": 3944,
    "Ver": 3945,
    "acter": 3946,
    "Ä -=": 3947,
    "DS": 3948,
    "Ä characters": 3949,
    "icon": 3950,
    "mission": 3951,
    "Ä bel": 3952,
    "Ä hook": 3953,
    "amily": 3954,
    "Ä Tem": 3955,
    "Ä Job": 3956,
    "ecess": 3957,
    "Ä topic": 3958,
    "Ä equal": 3959,
    "ixed": 3960,
    "Ä Stream": 3961,
    "havi": 3962,
    "Relation": 3963,
    "ORY": 3964,
    "uce": 3965,
    "olog": 3966,
    "Ä Unlock": 3967,
    "Ä fileName": 3968,
    "span": 3969,
    "Ä via": 3970,
    "Ä reason": 3971,
    "Ä numpy": 3972,
    "Ä corres": 3973,
    "Ä seconds": 3974,
    "ensor": 3975,
    "Conf": 3976,
    "parameters": 3977,
    "Ä Str": 3978,
    "LASS": 3979,
    "contents": 3980,
    "Ä admin": 3981,
    "Ä HTML": 3982,
    "XT": 3983,
    "ross": 3984,
    "irm": 3985,
    "Ä Am": 3986,
    "ifact": 3987,
    "Ä verbose": 3988,
    "Non": 3989,
    "NotFoundException": 3990,
    "ES": 3991,
    "Ä release": 3992,
    "NON": 3993,
    "grade": 3994,
    "ven": 3995,
    "Register": 3996,
    "SQL": 3997,
    "Ä Build": 3998,
    "Ä metric": 3999,
    "queue": 4000,
    "Ä secret": 4001,
    "Exists": 4002,
    "Ä clazz": 4003,
    "}/": 4004,
    "OST": 4005,
    "Interval": 4006,
    "Ä progress": 4007,
    "Ä Filter": 4008,
    "ene": 4009,
    "Ä ifc": 4010,
    "Ä FI": 4011,
    "shift": 4012,
    "anization": 4013,
    "Ä '-'": 4014,
    "Ä Debug": 4015,
    "Ä \"/\"": 4016,
    "uring": 4017,
    "hing": 4018,
    "Ä Dep": 4019,
    "Cell": 4020,
    "Sequence": 4021,
    "Ä isDebug": 4022,
    "Ä registry": 4023,
    "Ä tick": 4024,
    "select": 4025,
    "Ä origin": 4026,
    "tribution": 4027,
    "Ä services": 4028,
    "Profile": 4029,
    "ategories": 4030,
    "Ä way": 4031,
    "plot": 4032,
    "17": 4033,
    "Ä Tag": 4034,
    "*'": 4035,
    "prec": 4036,
    "Ä Convert": 4037,
    "Ä SdkClientException": 4038,
    "Ä Container": 4039,
    "Ä agent": 4040,
    "Ä stored": 4041,
    "Ä another": 4042,
    "SET": 4043,
    "Ä 200": 4044,
    "Ä mer": 4045,
    "Ä initialize": 4046,
    "Sync": 4047,
    "Ä Link": 4048,
    "Ä Version": 4049,
    "Ä Connection": 4050,
    "VALUE": 4051,
    "Ä Ad": 4052,
    "Ä wrapper": 4053,
    "iddleware": 4054,
    "Ä Optional": 4055,
    "Ä disable": 4056,
    "cp": 4057,
    "Ä logic": 4058,
    "Transform": 4059,
    "style": 4060,
    "Ä getAttribute": 4061,
    "uction": 4062,
    "oper": 4063,
    "exception": 4064,
    "Term": 4065,
    "PA": 4066,
    "QUE": 4067,
    "Ä direction": 4068,
    "Pan": 4069,
    "Lower": 4070,
    "connection": 4071,
    "Ä platform": 4072,
    "Ä engine": 4073,
    "Ä compile": 4074,
    "Ä pres": 4075,
    "Ä finish": 4076,
    "Ä Format": 4077,
    "Ä acc": 4078,
    "Web": 4079,
    "Ä >>>": 4080,
    "Checks": 4081,
    "Clo": 4082,
    "right": 4083,
    "Ä usage": 4084,
    "Ä components": 4085,
    "Ä ms": 4086,
    "Ä sav": 4087,
    "Ä loader": 4088,
    "onitor": 4089,
    "EntryEnabled": 4090,
    "scrib": 4091,
    "Ä dom": 4092,
    "vari": 4093,
    "plugin": 4094,
    "fully": 4095,
    "onds": 4096,
    "Ä calls": 4097,
    "ty": 4098,
    "entry": 4099,
    "Ä isEntryEnabled": 4100,
    "track": 4101,
    "Ä would": 4102,
    "Bucket": 4103,
    "Ä registered": 4104,
    "Ä conversion": 4105,
    "buffer": 4106,
    "ITY": 4107,
    "romise": 4108,
    "Project": 4109,
    "handle": 4110,
    "Ä includ": 4111,
    "Ä Null": 4112,
    "wrap": 4113,
    "Ä escape": 4114,
    "Ä Abstract": 4115,
    "Ä AND": 4116,
    "Arg": 4117,
    "Future": 4118,
    "step": 4119,
    "ployment": 4120,
    "Ä what": 4121,
    "alysis": 4122,
    "Ä such": 4123,
    "Ä times": 4124,
    "Ä bits": 4125,
    "Ä icon": 4126,
    "supported": 4127,
    "ecessary": 4128,
    "Ä mu": 4129,
    "LOW": 4130,
    "Segment": 4131,
    "Ä permission": 4132,
    "Product": 4133,
    "Email": 4134,
    "Ä scan": 4135,
    "VI": 4136,
    "Graph": 4137,
    "quires": 4138,
    "points": 4139,
    "Ä callable": 4140,
    "Ä named": 4141,
    "EXT": 4142,
    "Ä simple": 4143,
    "Ä \"{": 4144,
    "Ä LOGGER": 4145,
    "task": 4146,
    "Ä Work": 4147,
    "debug": 4148,
    "lex": 4149,
    "pose": 4150,
    "sume": 4151,
    "Ä ans": 4152,
    "Ä vars": 4153,
    "Pair": 4154,
    "cast": 4155,
    "tags": 4156,
    "Ä zone": 4157,
    "Ä bin": 4158,
    "Ä fall": 4159,
    "Step": 4160,
    "author": 4161,
    "alth": 4162,
    "Ä Find": 4163,
    "Down": 4164,
    "metadata": 4165,
    "Ä series": 4166,
    "ains": 4167,
    "Ä rot": 4168,
    "can": 4169,
    "Ä getR": 4170,
    "Ä master": 4171,
    "cmd": 4172,
    "question": 4173,
    "inates": 4174,
    "condition": 4175,
    "handler": 4176,
    "exec": 4177,
    "Ä gp": 4178,
    "DER": 4179,
    "Ä strtolower": 4180,
    "manager": 4181,
    "Ä separator": 4182,
    "Ä safe": 4183,
    "anaged": 4184,
    "Ä Spec": 4185,
    "Ä functions": 4186,
    "utdown": 4187,
    "Tx": 4188,
    "Ä Operation": 4189,
    "Ä alpha": 4190,
    "Ä containing": 4191,
    "Ä \"_": 4192,
    "ferred": 4193,
    "Ä HE": 4194,
    "Stats": 4195,
    "Ä migr": 4196,
    "atio": 4197,
    "ogn": 4198,
    "Ä determine": 4199,
    "Ä 20": 4200,
    "XML": 4201,
    "Ä Ä Ä Ä Ä Ä ": 4202,
    "Ä loaded": 4203,
    "Ä translate": 4204,
    "Vari": 4205,
    "Ä Throwable": 4206,
    "Ä maximum": 4207,
    "COM": 4208,
    "Ä actions": 4209,
    "height": 4210,
    "PATH": 4211,
    "Children": 4212,
    "Ä validator": 4213,
    "Ä Join": 4214,
    "Ä identity": 4215,
    "Adapter": 4216,
    "Desc": 4217,
    "istration": 4218,
    "Ä reverse": 4219,
    "Ä Go": 4220,
    "Ä backend": 4221,
    "Ä helper": 4222,
    "Idx": 4223,
    "Ä download": 4224,
    "Ä candid": 4225,
    "Zone": 4226,
    "vc": 4227,
    "Ä isDebugEnabled": 4228,
    "Errors": 4229,
    "loaded": 4230,
    "Ä pid": 4231,
    "Ä ER": 4232,
    "Ä math": 4233,
    "Ä disk": 4234,
    "Ä TR": 4235,
    "Display": 4236,
    "Ä enable": 4237,
    "Ä Max": 4238,
    "ECT": 4239,
    "inator": 4240,
    "Ä enumerate": 4241,
    "Ä Logger": 4242,
    "Registry": 4243,
    "Ä startswith": 4244,
    "Day": 4245,
    "strap": 4246,
    "Title": 4247,
    "Ä 24": 4248,
    "Co": 4249,
    "Ä ps": 4250,
    "Ä neg": 4251,
    "oom": 4252,
    "Ä fp": 4253,
    "Database": 4254,
    "PARATOR": 4255,
    "site": 4256,
    "Ä Application": 4257,
    "CP": 4258,
    "Ä these": 4259,
    "Ä needs": 4260,
    "Ä peer": 4261,
    "Ä pag": 4262,
    "script": 4263,
    "Ä nb": 4264,
    "leep": 4265,
    "Ä Wrap": 4266,
    "Ä watch": 4267,
    "Ä vm": 4268,
    "Ä NOT": 4269,
    "Validate": 4270,
    "Ä checks": 4271,
    "settings": 4272,
    "Ä await": 4273,
    "thing": 4274,
    "Ä Rel": 4275,
    "Ä Property": 4276,
    "Ä signal": 4277,
    "':": 4278,
    "]\"": 4279,
    "Enc": 4280,
    "Ä lon": 4281,
    "Ä deleted": 4282,
    "Ä dirname": 4283,
    "Ä Function": 4284,
    "next": 4285,
    "Ä salt": 4286,
    "istics": 4287,
    "parser": 4288,
    "Ä fieldName": 4289,
    "Ä ':": 4290,
    "Ä fig": 4291,
    "chedul": 4292,
    "fn": 4293,
    "IO": 4294,
    "Ä indices": 4295,
    "TO": 4296,
    "Ä Back": 4297,
    "HERE": 4298,
    "system": 4299,
    "Rows": 4300,
    "Resolver": 4301,
    "aration": 4302,
    "Ä getData": 4303,
    "Ä Header": 4304,
    "Parts": 4305,
    "Ä curr": 4306,
    "AND": 4307,
    "domain": 4308,
    "Ä metrics": 4309,
    "Ä Observable": 4310,
    "LETE": 4311,
    "Warnings": 4312,
    "56": 4313,
    "Ä di": 4314,
    "cd": 4315,
    "alan": 4316,
    "Ä HashMap": 4317,
    "Ä mut": 4318,
    "Ä Document": 4319,
    "Selector": 4320,
    "Ä Sib": 4321,
    "Ä worker": 4322,
    "Ä valueOf": 4323,
    "errors": 4324,
    "Ä correspond": 4325,
    "Ä async": 4326,
    "channel": 4327,
    "Ä getRequest": 4328,
    "Ä //$": 4329,
    "plement": 4330,
    "Db": 4331,
    "Ä reply": 4332,
    "kwargs": 4333,
    "Identity": 4334,
    "Ä representation": 4335,
    "Ä 1000": 4336,
    "ipher": 4337,
    "yg": 4338,
    "Ä getPath": 4339,
    "imiter": 4340,
    "angle": 4341,
    "Ä Item": 4342,
    "Ä sk": 4343,
    "Ä Make": 4344,
    "eros": 4345,
    "ryption": 4346,
    "Ä Order": 4347,
    "InputStream": 4348,
    "TR": 4349,
    "attributes": 4350,
    "Ä configured": 4351,
    "Ä Sel": 4352,
    "Html": 4353,
    "Validation": 4354,
    "Ä scheme": 4355,
    "Ä invoke": 4356,
    "Ä '</": 4357,
    "Ä modified": 4358,
    ";'": 4359,
    "Ä Ph": 4360,
    "eo": 4361,
    "Ä course": 4362,
    "ports": 4363,
    "Ä commands": 4364,
    "aj": 4365,
    "23": 4366,
    "Ä getConfig": 4367,
    "Security": 4368,
    "ides": 4369,
    "SERVER": 4370,
    "Ä permissions": 4371,
    "($": 4372,
    "Ä security": 4373,
    "Ä generated": 4374,
    "Ä closed": 4375,
    "bind": 4376,
    "Ä aggreg": 4377,
    "Ä Init": 4378,
    "Ä Cache": 4379,
    "ighb": 4380,
    "Ä modules": 4381,
    "Ä Action": 4382,
    "Ä Sign": 4383,
    "unch": 4384,
    "buf": 4385,
    "Notification": 4386,
    "Ä est": 4387,
    "ants": 4388,
    "Ä Process": 4389,
    "ours": 4390,
    "ARN": 4391,
    "atalog": 4392,
    "Ä Has": 4393,
    "Ä priority": 4394,
    "Ä attempt": 4395,
    "Ä Cloud": 4396,
    "olt": 4397,
    "Ä blocks": 4398,
    "Ä Put": 4399,
    "NOT": 4400,
    "oft": 4401,
    "Track": 4402,
    "Ä End": 4403,
    "Ä SibTr": 4404,
    "Ä Ä‰Ä‰Ä‰Ä‰": 4405,
    "project": 4406,
    "Ä pointer": 4407,
    "mail": 4408,
    "Ä prototype": 4409,
    "Engine": 4410,
    "Art": 4411,
    "close": 4412,
    "dist": 4413,
    "Ä packet": 4414,
    "END": 4415,
    "Sort": 4416,
    "imer": 4417,
    "Ä extensions": 4418,
    "Member": 4419,
    "Pack": 4420,
    "Ä selection": 4421,
    "Ä cr": 4422,
    "vas": 4423,
    "sets": 4424,
    "Ä commerce": 4425,
    "Ä define": 4426,
    "Ä '_'": 4427,
    "================================": 4428,
    "ASE": 4429,
    "px": 4430,
    "ocation": 4431,
    "Xml": 4432,
    "Ä exclude": 4433,
    "Ä toArray": 4434,
    "Initial": 4435,
    "After": 4436,
    "Ä IS": 4437,
    "><": 4438,
    "Ä snapshot": 4439,
    "Ä calling": 4440,
    "Ä View": 4441,
    "!\"": 4442,
    "etermin": 4443,
    "Ä Load": 4444,
    "Could": 4445,
    "Admin": 4446,
    "Ä mag": 4447,
    "Ä credentials": 4448,
    "63": 4449,
    "zip": 4450,
    "Ä {$": 4451,
    "Ä fire": 4452,
    "Ä formatter": 4453,
    "Ä Big": 4454,
    "mask": 4455,
    "Ä generator": 4456,
    "Category": 4457,
    "Ä Api": 4458,
    "Ä charAt": 4459,
    "Ä refresh": 4460,
    "Ä dev": 4461,
    "Ä score": 4462,
    "Ä remaining": 4463,
    "FT": 4464,
    "td": 4465,
    "Paths": 4466,
    "Ä features": 4467,
    "property": 4468,
    "Comment": 4469,
    "Ä ServiceResponse": 4470,
    "Ä implementation": 4471,
    "Ä serialize": 4472,
    "ops": 4473,
    "ccept": 4474,
    "SSION": 4475,
    "hook": 4476,
    "Ä Simple": 4477,
    "Rules": 4478,
    "remove": 4479,
    "Ä Can": 4480,
    "paths": 4481,
    "left": 4482,
    "errupt": 4483,
    "udio": 4484,
    "imes": 4485,
    "Ä most": 4486,
    "hs": 4487,
    "FC": 4488,
    "Ä expect": 4489,
    "gb": 4490,
    "ke": 4491,
    "ively": 4492,
    "ffic": 4493,
    "Ä Now": 4494,
    "Ä Amazon": 4495,
    "ness": 4496,
    "Batch": 4497,
    "Ä Iterator": 4498,
    "entic": 4499,
    "show": 4500,
    "Ä li": 4501,
    "alled": 4502,
    "LL": 4503,
    "ideo": 4504,
    "holder": 4505,
    "Ä getA": 4506,
    "gen": 4507,
    "Ä coll": 4508,
    ".*": 4509,
    "Success": 4510,
    "Ä words": 4511,
    "RECT": 4512,
    "Ä chr": 4513,
    "Ä stderr": 4514,
    "Cannot": 4515,
    "Ä adapter": 4516,
    "Ä lif": 4517,
    "Ä ET": 4518,
    "Ä rc": 4519,
    "Ä least": 4520,
    "gt": 4521,
    "Integer": 4522,
    "requ": 4523,
    "vals": 4524,
    "Strategy": 4525,
    "ilt": 4526,
    "mag": 4527,
    "https": 4528,
    "Ä standard": 4529,
    "ison": 4530,
    "valu": 4531,
    "checked": 4532,
    "Ä updates": 4533,
    "Socket": 4534,
    "ivery": 4535,
    "asic": 4536,
    "DIR": 4537,
    "timeout": 4538,
    "adoc": 4539,
    "Ä inputs": 4540,
    "Ä indic": 4541,
    "Ä expand": 4542,
    "Ä avoid": 4543,
    "Ä qual": 4544,
    "Volume": 4545,
    "Ä matcher": 4546,
    "Ä Protocol": 4547,
    "Ä span": 4548,
    "struction": 4549,
    "SEPARATOR": 4550,
    "Ä currently": 4551,
    "Ä MAX": 4552,
    "Ä leg": 4553,
    "Ä You": 4554,
    "Ä uid": 4555,
    "Ä sn": 4556,
    "Ä Level": 4557,
    "att": 4558,
    "SL": 4559,
    "ocus": 4560,
    "Ä 255": 4561,
    "Ä Var": 4562,
    "FIX": 4563,
    "Ä hasNext": 4564,
    "'re": 4565,
    "MP": 4566,
    "rypted": 4567,
    "Snapshot": 4568,
    "Ä dum": 4569,
    "Ifc": 4570,
    "Ä FROM": 4571,
    "Join": 4572,
    "Ä necessary": 4573,
    "SIZE": 4574,
    "Modified": 4575,
    "Layer": 4576,
    "DF": 4577,
    "ecycle": 4578,
    "Remov": 4579,
    "Ä supplied": 4580,
    "aim": 4581,
    "Ä special": 4582,
    "Rout": 4583,
    "Depend": 4584,
    "Ä \".\"": 4585,
    "Ä Core": 4586,
    "Ä low": 4587,
    "Ä execution": 4588,
    "attribute": 4589,
    "Ä inject": 4590,
    "Ä were": 4591,
    "Ä tasks": 4592,
    "Ä defaultValue": 4593,
    "DATE": 4594,
    "Feature": 4595,
    "CS": 4596,
    "Mapper": 4597,
    "Ä Suppress": 4598,
    "Menu": 4599,
    "Insert": 4600,
    "faces": 4601,
    "Ä images": 4602,
    "Ä Act": 4603,
    "Ä calculate": 4604,
    "Close": 4605,
    "Ä tables": 4606,
    "esh": 4607,
    "Ä deep": 4608,
    "Widget": 4609,
    "arm": 4610,
    "Ä Schema": 4611,
    "Ä filePath": 4612,
    "incip": 4613,
    "Ä retrieve": 4614,
    "role": 4615,
    "icro": 4616,
    "Ä center": 4617,
    "OS": 4618,
    "edit": 4619,
    "Ä cause": 4620,
    "Ä Red": 4621,
    "Ä '@": 4622,
    "_'": 4623,
    "Ä delay": 4624,
    "Generate": 4625,
    "safe": 4626,
    "Ä pad": 4627,
    "Arguments": 4628,
    "Ä PRO": 4629,
    "03": 4630,
    "account": 4631,
    "OutputStream": 4632,
    "Ä router": 4633,
    "Ä pending": 4634,
    "Matrix": 4635,
    "Ä conditions": 4636,
    "bro": 4637,
    "ressed": 4638,
    "Ä Match": 4639,
    "Ä resolved": 4640,
    "Ä perm": 4641,
    "Ä ord": 4642,
    "cording": 4643,
    "ne": 4644,
    "Ä resourceGroupName": 4645,
    "conn": 4646,
    "alyz": 4647,
    "Ä 11": 4648,
    "Before": 4649,
    "groups": 4650,
    "Ä norm": 4651,
    "component": 4652,
    "Ä bar": 4653,
    "Ä shift": 4654,
    "Ä PARAM": 4655,
    "Ä corresponding": 4656,
    "Ä dump": 4657,
    "Prop": 4658,
    "Ä Configuration": 4659,
    "graph": 4660,
    "send": 4661,
    "Ä \"$": 4662,
    "Ä Handler": 4663,
    "Cap": 4664,
    "olders": 4665,
    "Edit": 4666,
    "Me": 4667,
    "Driver": 4668,
    "sql": 4669,
    "Core": 4670,
    "Ä yet": 4671,
    "):": 4672,
    "Ä Other": 4673,
    "Ä iv": 4674,
    "pings": 4675,
    "ology": 4676,
    "Ä App": 4677,
    "Flag": 4678,
    "Ä listeners": 4679,
    "ALSE": 4680,
    "Ä days": 4681,
    "Ä click": 4682,
    "resources": 4683,
    "TIME": 4684,
    "ALL": 4685,
    "Ä Point": 4686,
    "Ä excl": 4687,
    "job": 4688,
    "Ä pages": 4689,
    "nodes": 4690,
    "Ä train": 4691,
    "Ä uses": 4692,
    "Ä flow": 4693,
    "Ä slot": 4694,
    "></": 4695,
    "Ä means": 4696,
    "Ä Ä‰Ä‰Ä‰": 4697,
    "eme": 4698,
    "vars": 4699,
    "77": 4700,
    "classes": 4701,
    "Ä partial": 4702,
    "Ä DOM": 4703,
    "Are": 4704,
    "Encoding": 4705,
    "Ä CUR": 4706,
    "Ä Py": 4707,
    "onom": 4708,
    "Test": 4709,
    "Objects": 4710,
    "Ä 15": 4711,
    "Methods": 4712,
    "(\\": 4713,
    "USER": 4714,
    "Ä glob": 4715,
    "Ä links": 4716,
    "results": 4717,
    "required": 4718,
    "Certificate": 4719,
    "find": 4720,
    "Ä note": 4721,
    "ANCE": 4722,
    "Float": 4723,
    "Ä embed": 4724,
    "Ä Ass": 4725,
    "Right": 4726,
    "Rate": 4727,
    "man": 4728,
    "Ä patch": 4729,
    "Ä setAttribute": 4730,
    "ygon": 4731,
    "Ä UT": 4732,
    "Summary": 4733,
    "parison": 4734,
    "Ä getUser": 4735,
    "Ä transport": 4736,
    "Ä som": 4737,
    "properties": 4738,
    "Ä lin": 4739,
    "QUEST": 4740,
    "Orig": 4741,
    "Expr": 4742,
    "category": 4743,
    "Ä sq": 4744,
    "Servlet": 4745,
    "Ä feed": 4746,
    "Cms": 4747,
    "Ä browser": 4748,
    "ws": 4749,
    "Ä protected": 4750,
    "oding": 4751,
    "Ä 60": 4752,
    "Ä Column": 4753,
    "Ä '\"'": 4754,
    "Save": 4755,
    "Cle": 4756,
    "bin": 4757,
    "emon": 4758,
    "helper": 4759,
    "aunch": 4760,
    "Attach": 4761,
    "PUT": 4762,
    "35": 4763,
    "Ä nested": 4764,
    "Ä consumer": 4765,
    "Ä Ä Ä Ä Ä Ä Ä Ä Ä Ä Ä Ä Ä Ä Ä Ä Ä Ä Ä Ä Ä Ä Ä Ä Ä Ä Ä Ä Ä Ä Ä Ä ": 4766,
    "Ä alloc": 4767,
    "success": 4768,
    "Ä tile": 4769,
    "onical": 4770,
    "FileName": 4771,
    "WithContext": 4772,
    "ood": 4773,
    "Ä getE": 4774,
    "Ä tableName": 4775,
    "allel": 4776,
    "Upload": 4777,
    "mount": 4778,
    "Rece": 4779,
    "peat": 4780,
    "Ä SuppressWarnings": 4781,
    "Public": 4782,
    "Ä Qu": 4783,
    "egate": 4784,
    "merce": 4785,
    "Exist": 4786,
    "lector": 4787,
    "Ä schedule": 4788,
    "Counter": 4789,
    "Ä pi": 4790,
    "Ä mail": 4791,
    "Ä implements": 4792,
    "addr": 4793,
    "Ä translation": 4794,
    "Ä blob": 4795,
    "Ä compat": 4796,
    "Ä fast": 4797,
    "Ä exceptions": 4798,
    "Ä plugins": 4799,
    "Ä specify": 4800,
    "lat": 4801,
    "Bl": 4802,
    "SELECT": 4803,
    "Ä Next": 4804,
    "avadoc": 4805,
    "ather": 4806,
    "ares": 4807,
    "sm": 4808,
    "Raw": 4809,
    "Ä produ": 4810,
    "my": 4811,
    "Ä cast": 4812,
    "covery": 4813,
    "Millis": 4814,
    "dius": 4815,
    "src": 4816,
    "uted": 4817,
    "Classes": 4818,
    "bot": 4819,
    "Report": 4820,
    "schema": 4821,
    "Ä Duration": 4822,
    "Ä Be": 4823,
    "created": 4824,
    "Ä might": 4825,
    "Ä All": 4826,
    "BUG": 4827,
    "Vert": 4828,
    "Ä getDefault": 4829,
    "URE": 4830,
    "Ä adds": 4831,
    "Ä inside": 4832,
    "Ä members": 4833,
    "Ä mat": 4834,
    "Ä boot": 4835,
    "udit": 4836,
    "sole": 4837,
    "Ä Messages": 4838,
    "Ä decor": 4839,
    "fr": 4840,
    "Missing": 4841,
    "LOG": 4842,
    "Ä free": 4843,
    "Calcul": 4844,
    "Ä fit": 4845,
    "Ä known": 4846,
    "Ä matched": 4847,
    "60": 4848,
    "ponses": 4849,
    "havior": 4850,
    "Over": 4851,
    "Ä WHERE": 4852,
    "uilt": 4853,
    "Ä der": 4854,
    "Ä hy": 4855,
    "Ä charset": 4856,
    "cli": 4857,
    "Ä editor": 4858,
    "Ä still": 4859,
    "Ä week": 4860,
    "register": 4861,
    "Ä take": 4862,
    "Ä pd": 4863,
    "Ä sing": 4864,
    "weight": 4865,
    "Ä Ifc": 4866,
    "shape": 4867,
    ";\"": 4868,
    "Ä OR": 4869,
    "HTML": 4870,
    "Ä ~": 4871,
    "Ä construct": 4872,
    "unit": 4873,
    "Unknown": 4874,
    "web": 4875,
    "caling": 4876,
    "ents": 4877,
    "Constraints": 4878,
    "Ä submit": 4879,
    "nd": 4880,
    "ui": 4881,
    "Ä basename": 4882,
    "DATA": 4883,
    "Ä Thread": 4884,
    "Ä too": 4885,
    "Ä algorithm": 4886,
    "scope": 4887,
    "Ä according": 4888,
    "Ä side": 4889,
    "axis": 4890,
    "Ä latest": 4891,
    "Ä mime": 4892,
    "Ä Host": 4893,
    "Ä caller": 4894,
    "ube": 4895,
    "conv": 4896,
    "Short": 4897,
    "/\"": 4898,
    "?'": 4899,
    "Ä roles": 4900,
    "logger": 4901,
    "Ä Tree": 4902,
    "Ä mb": 4903,
    "Ä dependency": 4904,
    "actions": 4905,
    "Ä many": 4906,
    "Dig": 4907,
    "Ä isValid": 4908,
    "ookup": 4909,
    "Assign": 4910,
    "avig": 4911,
    "Ä routes": 4912,
    "Writ": 4913,
    "Ä quot": 4914,
    "Ä subscription": 4915,
    "Ä summary": 4916,
    "Ä rect": 4917,
    "Ä methodName": 4918,
    "Ä handlers": 4919,
    "erved": 4920,
    "Timestamp": 4921,
    "Ä zeros": 4922,
    "language": 4923,
    "dec": 4924,
    "Ä reject": 4925,
    "Pointer": 4926,
    "Ä history": 4927,
    "ART": 4928,
    "Ä processing": 4929,
    "alias": 4930,
    "FS": 4931,
    "Ä keyword": 4932,
    "Ä Yii": 4933,
    "Ä FALSE": 4934,
    "COL": 4935,
    "lang": 4936,
    "namespace": 4937,
    "/{": 4938,
    "split": 4939,
    "Ä '__": 4940,
    "omatic": 4941,
    "Ä cli": 4942,
    "eer": 4943,
    "Ä certificate": 4944,
    "Ä ws": 4945,
    "Ä cc": 4946,
    "Stop": 4947,
    "Ä GP": 4948,
    "orig": 4949,
    "Ä descriptor": 4950,
    "pattern": 4951,
    "opts": 4952,
    "Ä own": 4953,
    "Ä constraint": 4954,
    "Ä formatted": 4955,
    "Site": 4956,
    "Ä pixel": 4957,
    "El": 4958,
    "Ä slug": 4959,
    "NG": 4960,
    "cheduler": 4961,
    "rv": 4962,
    "total": 4963,
    "chor": 4964,
    "Auto": 4965,
    "ough": 4966,
    "Ä absolute": 4967,
    "Ä dimension": 4968,
    "Ä startsWith": 4969,
    "'\"": 4970,
    "Ä units": 4971,
    "Ä bounds": 4972,
    "iling": 4973,
    "posite": 4974,
    "orter": 4975,
    "Extract": 4976,
    "Ä duplic": 4977,
    "Ä GET": 4978,
    "Ä creating": 4979,
    "Ä chart": 4980,
    "Ä scalar": 4981,
    "Ä during": 4982,
    "FORM": 4983,
    "Rol": 4984,
    "Ä successfully": 4985,
    "Det": 4986,
    "Ä cos": 4987,
    "imate": 4988,
    "scribe": 4989,
    "Perform": 4990,
    "Ä requires": 4991,
    "Ä padding": 4992,
    "Ä rate": 4993,
    "Ä Store": 4994,
    "Ä plan": 4995,
    "paces": 4996,
    "Ä getString": 4997,
    "Ä Source": 4998,
    "Ä KeyError": 4999,
    "Stat": 5000,
    "Ä es": 5001,
    "Multi": 5002,
    "Ä cm": 5003,
    "Ä Handle": 5004,
    "Fetch": 5005,
    "Ä theme": 5006,
    "CHE": 5007,
    "Ä Builder": 5008,
    "Ä seed": 5009,
    "Import": 5010,
    "Ä cho": 5011,
    "pressions": 5012,
    "Bag": 5013,
    "Dict": 5014,
    "raft": 5015,
    "Ä Access": 5016,
    "CL": 5017,
    "Vector": 5018,
    "Ä UN": 5019,
    "shop": 5020,
    "********************************": 5021,
    "egin": 5022,
    "Ä starting": 5023,
    "Ä virtual": 5024,
    "imitive": 5025,
    "34": 5026,
    "Period": 5027,
    "Ä mk": 5028,
    "itions": 5029,
    "Ä dependencies": 5030,
    "Ä getField": 5031,
    "ifies": 5032,
    "Changed": 5033,
    "256": 5034,
    "Ä Template": 5035,
    "area": 5036,
    "Ä InputStream": 5037,
    "azy": 5038,
    "Ä resolver": 5039,
    "profile": 5040,
    "Permission": 5041,
    "Allowed": 5042,
    "Ä ele": 5043,
    "erms": 5044,
    "Ä 14": 5045,
    "Arn": 5046,
    "Props": 5047,
    "Ins": 5048,
    "Mult": 5049,
    "Ä six": 5050,
    "Ä cloud": 5051,
    "Ä archive": 5052,
    "username": 5053,
    "ention": 5054,
    "Ä know": 5055,
    "Ä sur": 5056,
    "Ä handling": 5057,
    "Messages": 5058,
    "Ä Record": 5059,
    "StateException": 5060,
    "Ä did": 5061,
    "HT": 5062,
    "VALID": 5063,
    "Ä contentType": 5064,
    "cade": 5065,
    "Ä notify": 5066,
    "Ä Argument": 5067,
    "Ä configure": 5068,
    "OUT": 5069,
    "Ä getResource": 5070,
    "Ä git": 5071,
    "Converter": 5072,
    "Ä question": 5073,
    "Formatter": 5074,
    "fos": 5075,
    "ilities": 5076,
    "ium": 5077,
    "incipal": 5078,
    "Ä received": 5079,
    "Full": 5080,
    "Ä dr": 5081,
    "30": 5082,
    "Ä nothing": 5083,
    "std": 5084,
    "Ä binding": 5085,
    "policy": 5086,
    "Ä Options": 5087,
    "tn": 5088,
    "Ä getParent": 5089,
    "Ä Example": 5090,
    "Ä area": 5091,
    "eletes": 5092,
    "CR": 5093,
    "Flags": 5094,
    "=%": 5095,
    "DateTime": 5096,
    "Sep": 5097,
    "Ä Only": 5098,
    "light": 5099,
    "Ä met": 5100,
    "Sql": 5101,
    "Ä separ": 5102,
    "IDs": 5103,
    "Ä forward": 5104,
    "Ä filtered": 5105,
    "NLS": 5106,
    "Ä authentication": 5107,
    "Print": 5108,
    "Ä promise": 5109,
    "Ä Java": 5110,
    "tc": 5111,
    "columns": 5112,
    "abs": 5113,
    "Ä backup": 5114,
    "imation": 5115,
    "Ä shared": 5116,
    "olicies": 5117,
    "Ä gl": 5118,
    "CESS": 5119,
    "pop": 5120,
    "Updates": 5121,
    "Ä directly": 5122,
    "Ä representing": 5123,
    "!'": 5124,
    "Associ": 5125,
    "Validator": 5126,
    "IS": 5127,
    "Ä Network": 5128,
    "trace": 5129,
    "Ä Database": 5130,
    "Ä Stop": 5131,
    "ById": 5132,
    "Dist": 5133,
    "ATUS": 5134,
    "LOPT": 5135,
    "precated": 5136,
    "Ä later": 5137,
    "apture": 5138,
    "Dat": 5139,
    "Ä entities": 5140,
    "rate": 5141,
    "icense": 5142,
    "Ä VAL": 5143,
    "Ä tempor": 5144,
    "Ä approp": 5145,
    "mutable": 5146,
    "Price": 5147,
    "ierarch": 5148,
    "directory": 5149,
    "cut": 5150,
    "TEXT": 5151,
    "Ä jav": 5152,
    ")\\": 5153,
    "Ä getContent": 5154,
    "Ä segments": 5155,
    "cision": 5156,
    "Tokens": 5157,
    "Ä \"[": 5158,
    "UTF": 5159,
    "Global": 5160,
    "oo": 5161,
    "ival": 5162,
    "methods": 5163,
    "Processor": 5164,
    "Region": 5165,
    "Ä failure": 5166,
    "Ä Search": 5167,
    "Ä partic": 5168,
    "Remote": 5169,
    "trl": 5170,
    "lict": 5171,
    "Ä appropri": 5172,
    "ately": 5173,
    "Ä gre": 5174,
    "Ä getCurrent": 5175,
    "dn": 5176,
    "Ä isn": 5177,
    "Ä 64": 5178,
    "Ä Route": 5179,
    "Ä Instance": 5180,
    "Ä CP": 5181,
    "leton": 5182,
    "Ä '&": 5183,
    "Ä payment": 5184,
    "network": 5185,
    "Ä br": 5186,
    "\"'": 5187,
    "Rest": 5188,
    "=\\\"": 5189,
    "Bar": 5190,
    "alancer": 5191,
    "ELD": 5192,
    "84": 5193,
    "Ä fd": 5194,
    "Ä Javadoc": 5195,
    "Ä 30": 5196,
    "Gateway": 5197,
    "Ä saved": 5198,
    "Ä hostname": 5199,
    "Ä google": 5200,
    "help": 5201,
    "Ä ss": 5202,
    "Ä When": 5203,
    "Ä processed": 5204,
    "after": 5205,
    "dev": 5206,
    "Secret": 5207,
    "ething": 5208,
    "Ä provid": 5209,
    "Ä generic": 5210,
    "itespace": 5211,
    "css": 5212,
    "Ä optim": 5213,
    "Ä '='": 5214,
    "Connect": 5215,
    "Ä samples": 5216,
    "Ä restore": 5217,
    "Ä ut": 5218,
    "Ä NOTE": 5219,
    "RECTORY": 5220,
    "Ä retval": 5221,
    "grid": 5222,
    "stit": 5223,
    "Ä minimum": 5224,
    "Dim": 5225,
    "Ä tool": 5226,
    "endor": 5227,
    "Ä machine": 5228,
    "brocade": 5229,
    "Ä chars": 5230,
    "Ä edges": 5231,
    "Ä relationship": 5232,
    "SA": 5233,
    "Watch": 5234,
    "Ä Storage": 5235,
    "FIG": 5236,
    "CLASS": 5237,
    "Ä \"--": 5238,
    "opes": 5239,
    "UND": 5240,
    "anit": 5241,
    "Ä less": 5242,
    "argin": 5243,
    "Ä versions": 5244,
    "Ä Constants": 5245,
    "numeric": 5246,
    "Failure": 5247,
    "Ä da": 5248,
    "Flow": 5249,
    "Binding": 5250,
    "Ä country": 5251,
    "Ä unicode": 5252,
    "Ä vertex": 5253,
    "main": 5254,
    "AY": 5255,
    "He": 5256,
    "ulk": 5257,
    "/%": 5258,
    "plies": 5259,
    "Ä consider": 5260,
    "Ä argv": 5261,
    "Where": 5262,
    "Ptr": 5263,
    "Ä small": 5264,
    "Double": 5265,
    "Ä Env": 5266,
    "Ä Address": 5267,
    "Available": 5268,
    "Total": 5269,
    "Ä card": 5270,
    "Ä '[": 5271,
    "Ä Otherwise": 5272,
    "Ip": 5273,
    "Ä compiler": 5274,
    "Ä lex": 5275,
    "Ä Names": 5276,
    "METH": 5277,
    "Ä orderBy": 5278,
    "xx": 5279,
    "DEFAULT": 5280,
    "Single": 5281,
    "Ä '\\\\'": 5282,
    "umul": 5283,
    "AA": 5284,
    "Section": 5285,
    "uc": 5286,
    "Ä Label": 5287,
    "ceed": 5288,
    "Execute": 5289,
    "trim": 5290,
    "Ä angle": 5291,
    "86": 5292,
    "secon": 5293,
    "Ä Inter": 5294,
    "Ä operations": 5295,
    "stats": 5296,
    "xff": 5297,
    "Ä CURLOPT": 5298,
    "Ä fname": 5299,
    "=\"'": 5300,
    "Ä useful": 5301,
    "Ä eval": 5302,
    "batch": 5303,
    "JECT": 5304,
    "Ä comput": 5305,
    "Ä '*'": 5306,
    "Ä Channel": 5307,
    "ysql": 5308,
    "Ä prevent": 5309,
    "hip": 5310,
    "Ä KEY": 5311,
    "rees": 5312,
    "Ä library": 5313,
    "Ä against": 5314,
    "BO": 5315,
    "Ä geometry": 5316,
    "Ä ??": 5317,
    "Ä mac": 5318,
    ":%": 5319,
    "Ä tax": 5320,
    "UNT": 5321,
    "ones": 5322,
    "Ä kw": 5323,
    "27": 5324,
    "Dispatch": 5325,
    "Duration": 5326,
    "METHOD": 5327,
    "sw": 5328,
    "Ä sleep": 5329,
    "acing": 5330,
    "oriz": 5331,
    "has": 5332,
    ">\\": 5333,
    "Ä inspect": 5334,
    "Symbol": 5335,
    "labels": 5336,
    "Ä basic": 5337,
    "Ä proper": 5338,
    "aving": 5339,
    "21": 5340,
    "Ä flatten": 5341,
    "Ä 19": 5342,
    "Ä serialized": 5343,
    "Ä mount": 5344,
    "rule": 5345,
    "Ä nd": 5346,
    "Ä cols": 5347,
    "Ä those": 5348,
    "ale": 5349,
    "oder": 5350,
    "Ä references": 5351,
    "Ä arrays": 5352,
    "ca": 5353,
    "IVE": 5354,
    "Ä AS": 5355,
    "Ä hist": 5356,
    "Usage": 5357,
    "Login": 5358,
    "Filename": 5359,
    "Ä allows": 5360,
    "Instances": 5361,
    "Ä lv": 5362,
    "writ": 5363,
    "Ä eZ": 5364,
    "Plan": 5365,
    "Ä $$": 5366,
    "Ä sin": 5367,
    "Direct": 5368,
    "Information": 5369,
    "UI": 5370,
    "Ä Expression": 5371,
    "Fn": 5372,
    "Ä marker": 5373,
    "Signature": 5374,
    "Ä Ä Ä Ä Ä Ä Ä Ä Ä Ä Ä Ä Ä Ä Ä Ä Ä ": 5375,
    "Ä weights": 5376,
    "Ä Line": 5377,
    "Ä []": 5378,
    "transl": 5379,
    "Ä LE": 5380,
    "Ä constant": 5381,
    "Ä sym": 5382,
    "Ä TRUE": 5383,
    "Ä merged": 5384,
    "Ä Split": 5385,
    "Ä datas": 5386,
    "invalid": 5387,
    "Ä contact": 5388,
    "ookies": 5389,
    "olve": 5390,
    "button": 5391,
    "yntax": 5392,
    "Ä Reader": 5393,
    "Hook": 5394,
    "Ä parseInt": 5395,
    "Metric": 5396,
    "Ä Ä Ä Ä Ä Ä Ä Ä Ä Ä Ä Ä Ä Ä Ä Ä Ä Ä Ä Ä ": 5397,
    "ITE": 5398,
    "arr": 5399,
    "Entries": 5400,
    "Coord": 5401,
    "Ä program": 5402,
    "Ä digest": 5403,
    "ridge": 5404,
    "Ä pur": 5405,
    "ampa": 5406,
    "NE": 5407,
    "ales": 5408,
    "ongo": 5409,
    "Ä fact": 5410,
    "Ä Ä Ä Ä Ä Ä Ä Ä Ä Ä Ä ": 5411,
    "Ä background": 5412,
    "diff": 5413,
    "menu": 5414,
    "ampaign": 5415,
    "Ä mock": 5416,
    "display": 5417,
    "Ä proc": 5418,
    "Media": 5419,
    "Ä Project": 5420,
    "mult": 5421,
    "Filters": 5422,
    "Ä COM": 5423,
    "rong": 5424,
    "install": 5425,
    "Ä effect": 5426,
    "Ä Comp": 5427,
    "Ä addAll": 5428,
    "alpha": 5429,
    "Ä Html": 5430,
    "Ä sending": 5431,
    "ters": 5432,
    "Ä Register": 5433,
    "Ä Sw": 5434,
    "Ä Component": 5435,
    "seq": 5436,
    "Ä variant": 5437,
    "Ä Registry": 5438,
    "Ä isArray": 5439,
    "ease": 5440,
    "Ä timer": 5441,
    "Ä walk": 5442,
    "anguages": 5443,
    "Ä Min": 5444,
    "Month": 5445,
    "Ä big": 5446,
    "iration": 5447,
    "icker": 5448,
    "elist": 5449,
    "Ä Float": 5450,
    "Ä plt": 5451,
    "Ä Assert": 5452,
    "rs": 5453,
    "Ä Inv": 5454,
    "Ä ignored": 5455,
    "Ä even": 5456,
    "document": 5457,
    "CRE": 5458,
    "Ä reduce": 5459,
    "Own": 5460,
    "Cert": 5461,
    "Ä currency": 5462,
    "Ä reflection": 5463,
    "Such": 5464,
    "pk": 5465,
    "pass": 5466,
    "Ä DO": 5467,
    "Ä Scope": 5468,
    "Ä bottom": 5469,
    "Ä propertyName": 5470,
    "utils": 5471,
    "Ä Println": 5472,
    "Ä environ": 5473,
    "Ä awserr": 5474,
    "Ä ERROR": 5475,
    "Opts": 5476,
    "Ä IllegalStateException": 5477,
    "Ä sep": 5478,
    "Ä SubElement": 5479,
    "Wait": 5480,
    "Ä fragment": 5481,
    "88": 5482,
    "ADER": 5483,
    "Area": 5484,
    "Ä POST": 5485,
    "rypto": 5486,
    "Uint": 5487,
    "relation": 5488,
    "des": 5489,
    "Ä strict": 5490,
    "Progress": 5491,
    "Ä well": 5492,
    "Ä states": 5493,
    "Environment": 5494,
    "Ä Ag": 5495,
    "}.": 5496,
    "Ä Writer": 5497,
    "Ä Parameter": 5498,
    "Ä fixed": 5499,
    "Ä candidate": 5500,
    "IF": 5501,
    "Ä Any": 5502,
    "Buf": 5503,
    "Ä increment": 5504,
    "Ä appropriate": 5505,
    "Normal": 5506,
    "Boolean": 5507,
    "timestamp": 5508,
    "Encode": 5509,
    "True": 5510,
    "IST": 5511,
    "tty": 5512,
    "Ä coordinates": 5513,
    "Ä getAll": 5514,
    "Ä explicit": 5515,
    "################": 5516,
    "ServiceResponse": 5517,
    "Ä screen": 5518,
    "REQUEST": 5519,
    "39": 5520,
    "Split": 5521,
    "coming": 5522,
    "Ä foreign": 5523,
    "Ä setValue": 5524,
    "Ä mapped": 5525,
    "roker": 5526,
    "Ä etc": 5527,
    "DC": 5528,
    "Ä ep": 5529,
    "Ä takes": 5530,
    "empty": 5531,
    "Ä scroll": 5532,
    "upd": 5533,
    "Ä Apply": 5534,
    "MA": 5535,
    "Ä kernel": 5536,
    "Panel": 5537,
    "TY": 5538,
    "Ä templates": 5539,
    "29": 5540,
    "Owner": 5541,
    "Ä Calendar": 5542,
    "redicate": 5543,
    "lay": 5544,
    "Ä den": 5545,
    "Ä destroy": 5546,
    "route": 5547,
    "collection": 5548,
    "*/": 5549,
    "Ä sources": 5550,
    "Ä percent": 5551,
    "ula": 5552,
    "ogram": 5553,
    "Icon": 5554,
    "Vars": 5555,
    "IgnoreCase": 5556,
    "idual": 5557,
    "26": 5558,
    "Comparator": 5559,
    "roid": 5560,
    "Ä getRe": 5561,
    "UUID": 5562,
    "Ä Color": 5563,
    "side": 5564,
    "Ä exact": 5565,
    "course": 5566,
    "uss": 5567,
    "Setting": 5568,
    "desc": 5569,
    "Ä bad": 5570,
    "Ä gets": 5571,
    "CODE": 5572,
    "Ä threshold": 5573,
    "Ä pairs": 5574,
    "Ä getParameter": 5575,
    "Runtime": 5576,
    "users": 5577,
    "Ä factor": 5578,
    "Chunk": 5579,
    "Commit": 5580,
    ":\\": 5581,
    "Has": 5582,
    "Listeners": 5583,
    "Ä Cluster": 5584,
    "epCopy": 5585,
    "<!": 5586,
    "Scale": 5587,
    "Ä rev": 5588,
    "Ä Vector": 5589,
    "Ä cover": 5590,
    "www": 5591,
    "Operator": 5592,
    "Year": 5593,
    "Many": 5594,
    "ULE": 5595,
    "Ä indexes": 5596,
    "Ä COL": 5597,
    "FilePath": 5598,
    "Ä warnings": 5599,
    "Ä numbers": 5600,
    "Ä Graph": 5601,
    "WithServiceResponse": 5602,
    "WithServiceResponseAsync": 5603,
    "Ä lar": 5604,
    "Ä rand": 5605,
    "dig": 5606,
    "poser": 5607,
    "74": 5608,
    "folder": 5609,
    "package": 5610,
    "ilar": 5611,
    "Ä modify": 5612,
    "WOR": 5613,
    "'ll": 5614,
    "Ä provide": 5615,
    "Ä Post": 5616,
    "Ä annotations": 5617,
    "lt": 5618,
    "XX": 5619,
    "Ä deser": 5620,
    "();": 5621,
    "Ä hap": 5622,
    "History": 5623,
    "come": 5624,
    "like": 5625,
    "Ä |=": 5626,
    "rammar": 5627,
    "Qual": 5628,
    "agent": 5629,
    "LowerCase": 5630,
    "Ä Copy": 5631,
    "velope": 5632,
    "Ä rv": 5633,
    "Ä pub": 5634,
    "Ä HEAP": 5635,
    "Points": 5636,
    "anagement": 5637,
    "Ä getTable": 5638,
    "chain": 5639,
    "Ä normalized": 5640,
    "Ä predicate": 5641,
    "stat": 5642,
    "Ä manifest": 5643,
    "identifier": 5644,
    "tmp": 5645,
    "aries": 5646,
    "Ä Arrays": 5647,
    "rase": 5648,
    "defin": 5649,
    "Rec": 5650,
    "Ä getOption": 5651,
    "Ä Body": 5652,
    "Metrics": 5653,
    "Ä delimiter": 5654,
    "Annotations": 5655,
    "proxy": 5656,
    "Ä win": 5657,
    "Ä Common": 5658,
    "float": 5659,
    "medi": 5660,
    "Tab": 5661,
    "validate": 5662,
    "requency": 5663,
    "Lib": 5664,
    "WN": 5665,
    "import": 5666,
    "matrix": 5667,
    "window": 5668,
    "Man": 5669,
    "iment": 5670,
    "lint": 5671,
    "Ä issue": 5672,
    "Ä disabled": 5673,
    "xis": 5674,
    "Ä EX": 5675,
    "Services": 5676,
    "Kind": 5677,
    "Ä comments": 5678,
    "signed": 5679,
    "seg": 5680,
    "stop": 5681,
    "verage": 5682,
    "Destination": 5683,
    "Ä Validation": 5684,
    "Ä Reflection": 5685,
    "Ä calendar": 5686,
    "Ä styles": 5687,
    "save": 5688,
    "Ä align": 5689,
    "Ä renderer": 5690,
    "Ä ct": 5691,
    "Converts": 5692,
    "center": 5693,
    "Bounds": 5694,
    "Ä ready": 5695,
    "ugg": 5696,
    "storage": 5697,
    "DD": 5698,
    "available": 5699,
    "Ä sqrt": 5700,
    "join": 5701,
    "comm": 5702,
    "STANCE": 5703,
    "OB": 5704,
    "Ä SI": 5705,
    "Show": 5706,
    "Ä DIRECTORY": 5707,
    "ands": 5708,
    "sect": 5709,
    "cest": 5710,
    "Font": 5711,
    "Ä below": 5712,
    "Ä overr": 5713,
    "Ä Xml": 5714,
    "Arr": 5715,
    "Pages": 5716,
    "])": 5717,
    "36": 5718,
    "Ä <!": 5719,
    "EClass": 5720,
    "Ä above": 5721,
    "Ä Per": 5722,
    "controller": 5723,
    "Ä containsKey": 5724,
    "Ä radius": 5725,
    "Implement": 5726,
    "URCE": 5727,
    "Ä activity": 5728,
    "Replace": 5729,
    "Ä mov": 5730,
    "Ä shutdown": 5731,
    "coord": 5732,
    "pb": 5733,
    "force": 5734,
    "ctr": 5735,
    "Append": 5736,
    "Ä Collections": 5737,
    "raction": 5738,
    "Ä PDO": 5739,
    "Ä colors": 5740,
    "Go": 5741,
    "plier": 5742,
    "false": 5743,
    "empt": 5744,
    "enabled": 5745,
    "Ä started": 5746,
    "semb": 5747,
    "long": 5748,
    "Decimal": 5749,
    "Ä channels": 5750,
    "sv": 5751,
    "Protocol": 5752,
    "Ä \",\"": 5753,
    "fetch": 5754,
    "aging": 5755,
    "abilities": 5756,
    "VERSION": 5757,
    "beta": 5758,
    "salt": 5759,
    "Ä strconv": 5760,
    "dl": 5761,
    "ipart": 5762,
    "Lines": 5763,
    "eno": 5764,
    "Ä adjust": 5765,
    "Ä bus": 5766,
    "Retrieve": 5767,
    "inv": 5768,
    "Ä dimensions": 5769,
    "Ä invok": 5770,
    "before": 5771,
    "]*": 5772,
    "Ä vals": 5773,
    "Ä targets": 5774,
    "Bit": 5775,
    "font": 5776,
    "Ä ')'": 5777,
    "Ä StringUtils": 5778,
    "},": 5779,
    "Ä integ": 5780,
    "Ä contexts": 5781,
    "Ä Fe": 5782,
    "Ä First": 5783,
    "Simple": 5784,
    "Ä returning": 5785,
    "Locator": 5786,
    "the": 5787,
    "Static": 5788,
    "illing": 5789,
    "Ä python": 5790,
    "Suffix": 5791,
    "trict": 5792,
    "Ä sender": 5793,
    "IFI": 5794,
    "Ä border": 5795,
    "Mask": 5796,
    "upper": 5797,
    "Ä tail": 5798,
    "Ä Cre": 5799,
    "Pod": 5800,
    "usive": 5801,
    "----------------------------------------------------------------": 5802,
    "Ä answer": 5803,
    "STRING": 5804,
    "Ä wrapped": 5805,
    "Constraint": 5806,
    "loor": 5807,
    "ToString": 5808,
    "rf": 5809,
    "ildcard": 5810,
    "Ä parsing": 5811,
    "Equal": 5812,
    "Ä redis": 5813,
    "temp": 5814,
    "Ä mapper": 5815,
    "ceeded": 5816,
    "depend": 5817,
    "Ä pt": 5818,
    "login": 5819,
    "Ä shard": 5820,
    "mac": 5821,
    "Ä dock": 5822,
    "Ä NoSuch": 5823,
    "Ä roll": 5824,
    "(...": 5825,
    "Ä comparison": 5826,
    "Ä middleware": 5827,
    "ients": 5828,
    "media": 5829,
    "txt": 5830,
    "interface": 5831,
    "Ä ssl": 5832,
    "Ä appendChild": 5833,
    "\\.": 5834,
    "Ä Promise": 5835,
    "non": 5836,
    "wig": 5837,
    "Ä Wait": 5838,
    "ends": 5839,
    "Ä connected": 5840,
    "xf": 5841,
    "EOL": 5842,
    "Ä deg": 5843,
    "UTH": 5844,
    "bsolute": 5845,
    "istic": 5846,
    "unchecked": 5847,
    "Ä VALUE": 5848,
    "Ä included": 5849,
    "Pol": 5850,
    "Ä Kind": 5851,
    "Java": 5852,
    "Ä fac": 5853,
    "aut": 5854,
    "Ä adapt": 5855,
    "AV": 5856,
    "PS": 5857,
    "ATCH": 5858,
    "Ä automatic": 5859,
    "anded": 5860,
    "Ä cam": 5861,
    "Ä \"'\"": 5862,
    "Ä recip": 5863,
    "scale": 5864,
    "Ä happen": 5865,
    "Ä UUID": 5866,
    "Ä cipher": 5867,
    "peed": 5868,
    "Consumer": 5869,
    "Ä getStatus": 5870,
    "Ä lead": 5871,
    "etype": 5872,
    "Ä pipeline": 5873,
    "Ä mt": 5874,
    "secret": 5875,
    "Ä installed": 5876,
    "75": 5877,
    "Ä Sp": 5878,
    "RED": 5879,
    "arator": 5880,
    "Ä seen": 5881,
    "vance": 5882,
    "aterial": 5883,
    "Ä Marshal": 5884,
    "Ä attrib": 5885,
    "Ä cir": 5886,
    "GB": 5887,
    "Labels": 5888,
    "olution": 5889,
    "Ä Mem": 5890,
    "scriber": 5891,
    "Ä WebAPI": 5892,
    "Ä sv": 5893,
    "antity": 5894,
    "Ab": 5895,
    "product": 5896,
    "Uuid": 5897,
    "Ä ce": 5898,
    "={": 5899,
    "ctx": 5900,
    "Ä ordered": 5901,
    "render": 5902,
    "Ä never": 5903,
    "Ä recursive": 5904,
    "Binary": 5905,
    "children": 5906,
    "Ä packages": 5907,
    "09": 5908,
    "cap": 5909,
    "Ä recover": 5910,
    "ByName": 5911,
    "Transfer": 5912,
    "ars": 5913,
    "Ä toLowerCase": 5914,
    "Ä ui": 5915,
    "Ä Target": 5916,
    "Ä unknown": 5917,
    "ised": 5918,
    "losure": 5919,
    "Ä Infof": 5920,
    "Ä connections": 5921,
    "Ä fallback": 5922,
    "INFO": 5923,
    "Ä Module": 5924,
    "Sk": 5925,
    "Ä car": 5926,
    "Ä team": 5927,
    "Ä Sort": 5928,
    "tle": 5929,
    "thread": 5930,
    "Cmd": 5931,
    "Ä OS": 5932,
    "Accept": 5933,
    "Ä instant": 5934,
    "fill": 5935,
    "Ä obser": 5936,
    "REG": 5937,
    "Diff": 5938,
    "Ä equalsIgnoreCase": 5939,
    "Versions": 5940,
    "Ä written": 5941,
    "Ä sat": 5942,
    "Ä something": 5943,
    "sers": 5944,
    "Ä ones": 5945,
    "see": 5946,
    "Ä Transaction": 5947,
    "BE": 5948,
    "Ä hidden": 5949,
    "Ä checked": 5950,
    "Ä completed": 5951,
    "Into": 5952,
    "Ä canvas": 5953,
    "errupted": 5954,
    "Ä neighb": 5955,
    "Ä evaluate": 5956,
    "ued": 5957,
    "Ä 13": 5958,
    "Slice": 5959,
    "Ä working": 5960,
    "Redirect": 5961,
    "NotNull": 5962,
    "Ä logs": 5963,
    "device": 5964,
    "allow": 5965,
    "Ä detect": 5966,
    "TL": 5967,
    "aring": 5968,
    "[^": 5969,
    "Ä converted": 5970,
    "Ä receiver": 5971,
    "Ä shell": 5972,
    "Ä getNode": 5973,
    "Ä pot": 5974,
    "road": 5975,
    "Ä dynamic": 5976,
    "tain": 5977,
    "undefined": 5978,
    "depth": 5979,
    "MO": 5980,
    "Ä activ": 5981,
    "Ä Batch": 5982,
    "Ä cells": 5983,
    "Ä newInstance": 5984,
    "Ä Bytes": 5985,
    "prop": 5986,
    "Ä Buffered": 5987,
    "Upper": 5988,
    "events": 5989,
    "member": 5990,
    "Ä Multi": 5991,
    "ished": 5992,
    "Ä dep": 5993,
    "aped": 5994,
    "509": 5995,
    "UST": 5996,
    "LINE": 5997,
    "ONE": 5998,
    "encoding": 5999,
    "ierarchy": 6000,
    "Org": 6001,
    "Ä pick": 6002,
    "Ä workspace": 6003,
    "Ä writel": 6004,
    "Ä Namespace": 6005,
    "report": 6006,
    "Ä transition": 6007,
    "Ä Port": 6008,
    "Ä stage": 6009,
    "Ä pipe": 6010,
    "pool": 6011,
    "rad": 6012,
    "Ä actually": 6013,
    "Private": 6014,
    "Ä priv": 6015,
    "Ä tz": 6016,
    "pair": 6017,
    "inherit": 6018,
    "parts": 6019,
    "Ä Att": 6020,
    "Ä visible": 6021,
    "Ä {}'": 6022,
    "Ä choice": 6023,
    "Publish": 6024,
    "nail": 6025,
    "Ä generates": 6026,
    "Ä converter": 6027,
    "66": 6028,
    "Place": 6029,
    "28": 6030,
    "Memory": 6031,
    "Payment": 6032,
    "ao": 6033,
    "Ä getFile": 6034,
    "Ä lists": 6035,
    "Ä Security": 6036,
    "onomy": 6037,
    "LOB": 6038,
    "Ä precision": 6039,
    "Ä Warn": 6040,
    "Ä getQuery": 6041,
    "Ä attachment": 6042,
    "ARY": 6043,
    "sib": 6044,
    "isters": 6045,
    "wt": 6046,
    "Ä kv": 6047,
    "Ä NAME": 6048,
    "Ä desired": 6049,
    "Sw": 6050,
    "where": 6051,
    "Ä AR": 6052,
    "oring": 6053,
    "common": 6054,
    "Ä chunks": 6055,
    "Ä sha": 6056,
    "Ä Enum": 6057,
    "Ä grad": 6058,
    "jected": 6059,
    "Ä replacement": 6060,
    "Schedule": 6061,
    "---": 6062,
    "Authorization": 6063,
    "Holder": 6064,
    "LIC": 6065,
    "Ä Op": 6066,
    "CONT": 6067,
    "MIT": 6068,
    "NUM": 6069,
    "era": 6070,
    "Jvm": 6071,
    "Ä ii": 6072,
    "bre": 6073,
    "Ä coords": 6074,
    "Ä steps": 6075,
    "Ä Window": 6076,
    "Ä Device": 6077,
    "Aggreg": 6078,
    "auto": 6079,
    "Ä cf": 6080,
    "img": 6081,
    "Ä Custom": 6082,
    "Given": 6083,
    "ever": 6084,
    "Ä tol": 6085,
    "SSAGE": 6086,
    "Ä iterable": 6087,
    "Ä cases": 6088,
    "ples": 6089,
    "Ä Annotation": 6090,
    "Ä Utils": 6091,
    "Ä negative": 6092,
    "Ä authorization": 6093,
    "Declaration": 6094,
    "Ä workflow": 6095,
    "enticated": 6096,
    "Ä yaml": 6097,
    "Edge": 6098,
    "Gu": 6099,
    "Actions": 6100,
    "Ä csv": 6101,
    "none": 6102,
    "Ä enter": 6103,
    "Ä includes": 6104,
    "variable": 6105,
    "Ident": 6106,
    "Ä Bad": 6107,
    "Ä mc": 6108,
    "Detail": 6109,
    "Payload": 6110,
    "Ä sem": 6111,
    "alance": 6112,
    "Req": 6113,
    "xb": 6114,
    "lan": 6115,
    "Ä ..": 6116,
    "uses": 6117,
    "Ä tm": 6118,
    "Created": 6119,
    "Rect": 6120,
    "Ä spl": 6121,
    "Ä SH": 6122,
    "Ä CF": 6123,
    "Ä Google": 6124,
    "Ä pc": 6125,
    "Ä hour": 6126,
    "poch": 6127,
    "Ä Media": 6128,
    "Ä newValue": 6129,
    "normal": 6130,
    "Ä NewErr": 6131,
    "itter": 6132,
    "Ä github": 6133,
    "')": 6134,
    "Ä getTime": 6135,
    "Ä writeln": 6136,
    "Ä INT": 6137,
    "Ä addresses": 6138,
    "Ä buff": 6139,
    "yped": 6140,
    "ises": 6141,
    "Ä (%": 6142,
    "Ä cy": 6143,
    "Export": 6144,
    "assign": 6145,
    "Ä supports": 6146,
    "oreign": 6147,
    "Depth": 6148,
    "Ä There": 6149,
    "reat": 6150,
    "Cookie": 6151,
    "MT": 6152,
    "Ä \":\"": 6153,
    "returns": 6154,
    "Ä So": 6155,
    "Ä overwrite": 6156,
    "orizont": 6157,
    "Variables": 6158,
    "aking": 6159,
    "Ä Ver": 6160,
    "Ä Try": 6161,
    "59": 6162,
    "Credentials": 6163,
    "Ä Import": 6164,
    "Ä Func": 6165,
    "Ä cms": 6166,
    "Ä unpack": 6167,
    "Ä Dat": 6168,
    "iki": 6169,
    "utions": 6170,
    "Ä rank": 6171,
    "tl": 6172,
    "(...)\"": 6173,
    "Ä itself": 6174,
    "Ä person": 6175,
    "Ä dialog": 6176,
    "Literal": 6177,
    "sequence": 6178,
    "Opt": 6179,
    "reference": 6180,
    "Ä Append": 6181,
    "quare": 6182,
    "Ä Properties": 6183,
    "Ä ProtocolMarshaller": 6184,
    "ignore": 6185,
    "alf": 6186,
    "Fin": 6187,
    "MD": 6188,
    "oad": 6189,
    "Ä NewErrParam": 6190,
    "Ä video": 6191,
    "triction": 6192,
    "Activity": 6193,
    "Ä syn": 6194,
    "Ä vs": 6195,
    "umbnail": 6196,
    "Ä cred": 6197,
    "Ä codes": 6198,
    "Ä problem": 6199,
    "clean": 6200,
    "allet": 6201,
    "Ä sheet": 6202,
    "ocker": 6203,
    "Ä Role": 6204,
    "Ä price": 6205,
    "push": 6206,
    "Visible": 6207,
    "reset": 6208,
    "Ä Decode": 6209,
    "Warning": 6210,
    "uer": 6211,
    "xid": 6212,
    "iet": 6213,
    "ctrine": 6214,
    "gers": 6215,
    "../": 6216,
    "Cor": 6217,
    "Ä queries": 6218,
    "ashboard": 6219,
    "Removes": 6220,
    "estroy": 6221,
    "Ä catalog": 6222,
    "dap": 6223,
    "Ä findBy": 6224,
    "You": 6225,
    "complete": 6226,
    "Ä cn": 6227,
    "ism": 6228,
    "Ä ON": 6229,
    "Cloud": 6230,
    "database": 6231,
    "Ä uc": 6232,
    "Selection": 6233,
    "ulation": 6234,
    "cursively": 6235,
    "MIN": 6236,
    "Ä constraints": 6237,
    "alog": 6238,
    "OKEN": 6239,
    "Ä Encode": 6240,
    "TODO": 6241,
    "iol": 6242,
    "ulate": 6243,
    "OLLOW": 6244,
    "orld": 6245,
    "Ä IM": 6246,
    "Disk": 6247,
    "Backup": 6248,
    "Ä userId": 6249,
    "Ä 1024": 6250,
    "Tri": 6251,
    "Ä strategy": 6252,
    "PL": 6253,
    "ience": 6254,
    "Chan": 6255,
    "Ä coe": 6256,
    "Ä Cle": 6257,
    "Ä Plugin": 6258,
    "Ä rh": 6259,
    "05": 6260,
    "ially": 6261,
    "Proto": 6262,
    "Ä abort": 6263,
    "Tick": 6264,
    "....": 6265,
    "OIN": 6266,
    "Ä docker": 6267,
    "Ä Reference": 6268,
    "Ä temporary": 6269,
    "unique": 6270,
    "BER": 6271,
    "Ä getMethod": 6272,
    "DataType": 6273,
    "elements": 6274,
    "Amount": 6275,
    "Ä Std": 6276,
    "Ä loads": 6277,
    "racket": 6278,
    "Ä syntax": 6279,
    "}\\": 6280,
    "Ä Repository": 6281,
    "ving": 6282,
    "convert": 6283,
    "ajor": 6284,
    "Ä analysis": 6285,
    "Matcher": 6286,
    "Ä assum": 6287,
    "serialize": 6288,
    "Support": 6289,
    "java": 6290,
    "lying": 6291,
    "Ä conv": 6292,
    "Constructor": 6293,
    "veloper": 6294,
    "Codes": 6295,
    "Ä entrySet": 6296,
    "Complet": 6297,
    "Ä parents": 6298,
    "writer": 6299,
    "Ä filled": 6300,
    "Ä unc": 6301,
    "oto": 6302,
    "Unique": 6303,
    "Ä Remote": 6304,
    "Des": 6305,
    "Serializer": 6306,
    "PREFIX": 6307,
    "adow": 6308,
    "''": 6309,
    "Ä createElement": 6310,
    "oj": 6311,
    "ACE": 6312,
    "Grid": 6313,
    "Ä deployment": 6314,
    "._": 6315,
    "Ä tog": 6316,
    "Ä statements": 6317,
    "ensity": 6318,
    "cu": 6319,
    "Ä Rest": 6320,
    "Ä Size": 6321,
    "Complete": 6322,
    "Contents": 6323,
    "Ä evt": 6324,
    "Executor": 6325,
    "usters": 6326,
    "upload": 6327,
    "Ä determin": 6328,
    "changes": 6329,
    "Ä works": 6330,
    "DR": 6331,
    "StackTrace": 6332,
    "Ä migration": 6333,
    "44": 6334,
    "Ä indiv": 6335,
    "iness": 6336,
    "Ä ttl": 6337,
    "Ä From": 6338,
    "locale": 6339,
    "Ä serializer": 6340,
    "Ä Printf": 6341,
    "Serial": 6342,
    "ARNING": 6343,
    "ATED": 6344,
    "hidden": 6345,
    "Ä floor": 6346,
    "global": 6347,
    "filters": 6348,
    "cas": 6349,
    "Ä revision": 6350,
    "Present": 6351,
    "Ä getEntity": 6352,
    "Dialog": 6353,
    "PORT": 6354,
    "score": 6355,
    "xFF": 6356,
    "Ä wp": 6357,
    "sample": 6358,
    "orizontal": 6359,
    "quals": 6360,
    "atype": 6361,
    "][": 6362,
    "layer": 6363,
    "Tool": 6364,
    "IAL": 6365,
    "otes": 6366,
    "UNCTION": 6367,
    "Skip": 6368,
    "Ä DEBUG": 6369,
    "Ä inline": 6370,
    "Ä timezone": 6371,
    "etailed": 6372,
    "Ä getService": 6373,
    "Ä logical": 6374,
    "Ä Nullable": 6375,
    "Main": 6376,
    "Ä definitions": 6377,
    "zz": 6378,
    "ITH": 6379,
    "Ä UTF": 6380,
    "conditions": 6381,
    "Ä home": 6382,
    "Ä decoded": 6383,
    "Ä association": 6384,
    "final": 6385,
    "Ä pb": 6386,
    "insert": 6387,
    "aker": 6388,
    "Ä numeric": 6389,
    "Ä outer": 6390,
    "Ä cut": 6391,
    "ident": 6392,
    "Ä Part": 6393,
    "Ä AttributeError": 6394,
    "details": 6395,
    "Ä singleton": 6396,
    "wards": 6397,
    "Ä \":": 6398,
    "ango": 6399,
    "modules": 6400,
    "Ä describe": 6401,
    "Ä directories": 6402,
    "gp": 6403,
    "TED": 6404,
    "Ä verb": 6405,
    "strip": 6406,
    "ascript": 6407,
    "term": 6408,
    "periment": 6409,
    "Install": 6410,
    "umes": 6411,
    "Esc": 6412,
    "Ä *=": 6413,
    "Ä ctrl": 6414,
    "Card": 6415,
    "Ä altern": 6416,
    "avigation": 6417,
    "37": 6418,
    "Ä Ext": 6419,
    "flag": 6420,
    "Requests": 6421,
    "Ä VER": 6422,
    "nb": 6423,
    "Ä Tx": 6424,
    "Ä CA": 6425,
    "Put": 6426,
    "sd": 6427,
    "Ä caseIfc": 6428,
    "cls": 6429,
    "bool": 6430,
    "Ä EOF": 6431,
    "Ä prior": 6432,
    "Pass": 6433,
    "Bad": 6434,
    "onym": 6435,
    "slug": 6436,
    "Ä 50": 6437,
    "Ä monitor": 6438,
    "Ä Commerce": 6439,
    "tracking": 6440,
    "\">": 6441,
    "Ctx": 6442,
    "Defin": 6443,
    "Balancer": 6444,
    "Ä er": 6445,
    "png": 6446,
    "extension": 6447,
    "Ä native": 6448,
    "Ä formats": 6449,
    "Blocks": 6450,
    "lyph": 6451,
    "Loop": 6452,
    "Ä reading": 6453,
    "Ä initialized": 6454,
    "Ä getObject": 6455,
    "-%": 6456,
    "itional": 6457,
    "Ä Locale": 6458,
    "void": 6459,
    "DELETE": 6460,
    "////////////////////////////////": 6461,
    "Ä artifact": 6462,
    "Ä txt": 6463,
    "Make": 6464,
    "VENT": 6465,
    "Virtual": 6466,
    "Ä Gu": 6467,
    "Ä nan": 6468,
    "Ä CH": 6469,
    "tick": 6470,
    "Ä Files": 6471,
    "Ä rename": 6472,
    "Ä grammar": 6473,
    "Ä getContext": 6474,
    "Vertex": 6475,
    "Ä getResponse": 6476,
    "Ä categories": 6477,
    "ically": 6478,
    "JS": 6479,
    "aug": 6480,
    "Ä micro": 6481,
    "jax": 6482,
    "Ä SQLException": 6483,
    "Ä UI": 6484,
    "Series": 6485,
    "BY": 6486,
    "],": 6487,
    "Ä Pod": 6488,
    "Ä te": 6489,
    "Ä populate": 6490,
    "aN": 6491,
    "Authentication": 6492,
    "Draw": 6493,
    "boolean": 6494,
    "Bits": 6495,
    "Ä filesystem": 6496,
    "Utility": 6497,
    "loop": 6498,
    "Records": 6499,
    "udes": 6500,
    "Ä '#'": 6501,
    "PERTY": 6502,
    "(?:": 6503,
    "ailability": 6504,
    "ivalent": 6505,
    "udo": 6506,
    "Ä Description": 6507,
    "Ä including": 6508,
    "versation": 6509,
    "pred": 6510,
    "xc": 6511,
    "Ä FF": 6512,
    "ripts": 6513,
    "Ä listen": 6514,
    "Ä axes": 6515,
    "ele": 6516,
    "Common": 6517,
    "Trigger": 6518,
    "TERN": 6519,
    "Ä seek": 6520,
    "Permissions": 6521,
    "Bot": 6522,
    "Ä &#": 6523,
    "ersistence": 6524,
    "Ä RO": 6525,
    "ACT": 6526,
    "erve": 6527,
    "require": 6528,
    "Ä cop": 6529,
    "export": 6530,
    "Ä FOLLOW": 6531,
    "Ä iteration": 6532,
    "Ä bc": 6533,
    "Ä adding": 6534,
    "Ä mkdir": 6535,
    "ensitive": 6536,
    "SOURCE": 6537,
    "Ä getX": 6538,
    "Ä Bit": 6539,
    "make": 6540,
    "Ä due": 6541,
    "Optional": 6542,
    "publish": 6543,
    "Weight": 6544,
    "Ä annot": 6545,
    "Ä Linked": 6546,
    "transform": 6547,
    "Ä terms": 6548,
    "Ä 18": 6549,
    "Ä jobs": 6550,
    "chunk": 6551,
    "LAG": 6552,
    "FER": 6553,
    "xe": 6554,
    "Ä none": 6555,
    "Ä Row": 6556,
    "Ä ec": 6557,
    "Axis": 6558,
    "enticate": 6559,
    "hape": 6560,
    "ourn": 6561,
    "Ä Current": 6562,
    "Click": 6563,
    "54": 6564,
    "Ä Meta": 6565,
    "TRI": 6566,
    "Contact": 6567,
    "Transport": 6568,
    "culate": 6569,
    "quences": 6570,
    "Ä ptr": 6571,
    "ersistent": 6572,
    "Ä cat": 6573,
    "igration": 6574,
    "AIL": 6575,
    "Ä Raw": 6576,
    "Ä Character": 6577,
    "Ä delet": 6578,
    "Ä ll": 6579,
    "Ä 36": 6580,
    "Separator": 6581,
    "na": 6582,
    "Ä getCode": 6583,
    "PP": 6584,
    "datetime": 6585,
    "Ne": 6586,
    "widget": 6587,
    "Users": 6588,
    "LOCK": 6589,
    "Ä Account": 6590,
    "Ä clause": 6591,
    "mer": 6592,
    "Ä statusCode": 6593,
    "Ä panel": 6594,
    "Ä getProc": 6595,
    "Ä lifecycle": 6596,
    "Ä que": 6597,
    "ony": 6598,
    "Ä play": 6599,
    "Ä Python": 6600,
    "Ä executor": 6601,
    "enant": 6602,
    "Ä Del": 6603,
    "Ä 500": 6604,
    "Ä dns": 6605,
    "aves": 6606,
    "Lat": 6607,
    "roadcast": 6608,
    "Lookup": 6609,
    "pid": 6610,
    "Ä Skip": 6611,
    "Ä groupId": 6612,
    "ilation": 6613,
    "Ä '/^": 6614,
    "Decode": 6615,
    "SPACE": 6616,
    "Ä appro": 6617,
    "Override": 6618,
    "Ä \"#": 6619,
    "short": 6620,
    "Rad": 6621,
    "Ä Mark": 6622,
    "Ä layers": 6623,
    "interval": 6624,
    "100": 6625,
    "Ä vol": 6626,
    "-'": 6627,
    "Regex": 6628,
    "Ä Controller": 6629,
    "Week": 6630,
    "Ä getProcAddr": 6631,
    "tf": 6632,
    "Ä dx": 6633,
    "Ä Args": 6634,
    "Ä automatically": 6635,
    "Ä wire": 6636,
    "Ä arch": 6637,
    "Subject": 6638,
    "SU": 6639,
    "ifications": 6640,
    "Ä front": 6641,
    "tools": 6642,
    "Ä diag": 6643,
    "Evalu": 6644,
    "Fac": 6645,
    "Ä Git": 6646,
    "Ä Ä Ä Ä Ä Ä Ä Ä Ä Ä ": 6647,
    "Ä Domain": 6648,
    "Ä measure": 6649,
    "Ä built": 6650,
    "Ä Ed": 6651,
    "Ä subprocess": 6652,
    "Generates": 6653,
    "Ä Generate": 6654,
    "Ä td": 6655,
    "Parses": 6656,
    "Topic": 6657,
    "inger": 6658,
    "Ä processor": 6659,
    "Ä Certificate": 6660,
    "Ä assignment": 6661,
    "github": 6662,
    "Subscription": 6663,
    "ez": 6664,
    "slice": 6665,
    "Ä customer": 6666,
    "Packet": 6667,
    "Used": 6668,
    "76": 6669,
    "Ä webs": 6670,
    "Worker": 6671,
    "Asset": 6672,
    "plib": 6673,
    "Ä StringBuffer": 6674,
    "89": 6675,
    "setopt": 6676,
    "Ä Nonnull": 6677,
    "ntities": 6678,
    "aps": 6679,
    "Ä currentTime": 6680,
    "Dispatcher": 6681,
    "Ä Interface": 6682,
    "Ä Conn": 6683,
    "Ä fails": 6684,
    "Tasks": 6685,
    "Ä cleanup": 6686,
    "LED": 6687,
    "Cursor": 6688,
    "Ä callbacks": 6689,
    "Ä setParameter": 6690,
    "Cancel": 6691,
    "Ä rm": 6692,
    "Ä EN": 6693,
    "MAX": 6694,
    "Ä placeholder": 6695,
    "Help": 6696,
    "Ä checksum": 6697,
    "Ä Len": 6698,
    "Ä '|": 6699,
    "\\/": 6700,
    "Ä getText": 6701,
    "include": 6702,
    "changed": 6703,
    "SCRI": 6704,
    "Es": 6705,
    "present": 6706,
    "Ä rele": 6707,
    "Ä finished": 6708,
    "Ä userid": 6709,
    "Ä creation": 6710,
    "Ä dumps": 6711,
    "Ä Author": 6712,
    "}:": 6713,
    "loader": 6714,
    "csv": 6715,
    "Ä getColumn": 6716,
    "Translation": 6717,
    "Ä thrown": 6718,
    "Ä rad": 6719,
    "MOD": 6720,
    "OwnProperty": 6721,
    "RAY": 6722,
    "ptr": 6723,
    "Ä rpc": 6724,
    "Ä Iterable": 6725,
    "Ä signed": 6726,
    "Ä ops": 6727,
    "Ä checking": 6728,
    "Ä outputs": 6729,
    "Ä Pol": 6730,
    "rb": 6731,
    "Ä CR": 6732,
    "Deployment": 6733,
    "201": 6734,
    "Ä med": 6735,
    "Ä regular": 6736,
    "Ä populated": 6737,
    "tool": 6738,
    "Ä compact": 6739,
    "Ä around": 6740,
    "layout": 6741,
    "Ä getConnection": 6742,
    "CC": 6743,
    "Ä dc": 6744,
    "SSL": 6745,
    "correct": 6746,
    "Renderer": 6747,
    "Ä xpath": 6748,
    "Ä mp": 6749,
    "Ä assume": 6750,
    "Ä duplicate": 6751,
    "Ä rotation": 6752,
    "Ä Must": 6753,
    "Ä applied": 6754,
    "Ä family": 6755,
    "Ä JS": 6756,
    "ceptor": 6757,
    "Ä organization": 6758,
    "Mail": 6759,
    "ivers": 6760,
    "Ä CS": 6761,
    "Seconds": 6762,
    "Delay": 6763,
    "Ä sanit": 6764,
    "Ä CSS": 6765,
    "Ä Select": 6766,
    "Exit": 6767,
    "vide": 6768,
    "initial": 6769,
    "mapping": 6770,
    "ipping": 6771,
    "Ä yang": 6772,
    "Ä serviceName": 6773,
    "aler": 6774,
    "parameter": 6775,
    "FIELD": 6776,
    "Timer": 6777,
    "provider": 6778,
    "arb": 6779,
    "ocab": 6780,
    "Ä Rule": 6781,
    "np": 6782,
    "Ä Parser": 6783,
    "Ä configs": 6784,
    "mediate": 6785,
    "Merge": 6786,
    "Ä '?'": 6787,
    "Ä setName": 6788,
    "bits": 6789,
    "Ä pa": 6790,
    "Ä MET": 6791,
    "})": 6792,
    "Primary": 6793,
    "ders": 6794,
    "yy": 6795,
    "Ä beta": 6796,
    "+'": 6797,
    "Ä receive": 6798,
    "AF": 6799,
    "Ä hit": 6800,
    "Algorithm": 6801,
    "Ä greater": 6802,
    "Attachment": 6803,
    "enar": 6804,
    "Ä Num": 6805,
    "Scroll": 6806,
    "Ä clip": 6807,
    "Ä underlying": 6808,
    "enames": 6809,
    "Ä constants": 6810,
    "Ä inherit": 6811,
    "factor": 6812,
    "Peer": 6813,
    "Conversion": 6814,
    "Ä digits": 6815,
    "Ä Url": 6816,
    "ager": 6817,
    "Ä Pos": 6818,
    "ROUP": 6819,
    "Ä Term": 6820,
    "ado": 6821,
    "roke": 6822,
    "Ä \"</": 6823,
    "Ä minutes": 6824,
    "Ä Last": 6825,
    "Ä particular": 6826,
    "Ä ask": 6827,
    "Ä cross": 6828,
    "VICE": 6829,
    "Ä Pattern": 6830,
    "Ä repl": 6831,
    "DEX": 6832,
    "messages": 6833,
    "tp": 6834,
    "Ä contract": 6835,
    "indices": 6836,
    "Factor": 6837,
    "Ä reads": 6838,
    "Ä hparams": 6839,
    "08": 6840,
    "External": 6841,
    "cols": 6842,
    "Ä mix": 6843,
    "TableMap": 6844,
    "git": 6845,
    "Ä respond": 6846,
    "Ä HashSet": 6847,
    "factory": 6848,
    "Ä deprecated": 6849,
    "aws": 6850,
    "cms": 6851,
    "BagConstraints": 6852,
    "Ä hide": 6853,
    "iform": 6854,
    "Ä phase": 6855,
    "ANT": 6856,
    "cellation": 6857,
    "region": 6858,
    "KE": 6859,
    "inu": 6860,
    "Expected": 6861,
    "Ä‰Ä‰Ä‰Ä‰": 6862,
    "Ä javax": 6863,
    "Ä detailed": 6864,
    "Ä positions": 6865,
    "Ä prompt": 6866,
    "IZ": 6867,
    "estion": 6868,
    "Matches": 6869,
    "fail": 6870,
    "Ä tls": 6871,
    "ances": 6872,
    "Ä successful": 6873,
    "year": 6874,
    "Ä ff": 6875,
    "Ä Values": 6876,
    "\":": 6877,
    "Ä gateway": 6878,
    "Ä endswith": 6879,
    "Ä counts": 6880,
    "Ä alert": 6881,
    "Ä tri": 6882,
    "crete": 6883,
    "Ä patterns": 6884,
    "Ä behavior": 6885,
    "ibling": 6886,
    "Ä hold": 6887,
    "Ä backtracking": 6888,
    "quote": 6889,
    "rant": 6890,
    "gu": 6891,
    "Ä pull": 6892,
    "alyzer": 6893,
    "izing": 6894,
    "Ä positive": 6895,
    "Ä ini": 6896,
    "Ä ear": 6897,
    "Roles": 6898,
    "metric": 6899,
    "Ä aliases": 6900,
    "Ä encrypted": 6901,
    "Constant": 6902,
    "Ä urls": 6903,
    "vs": 6904,
    "Tables": 6905,
    "ably": 6906,
    "definition": 6907,
    "period": 6908,
    "ird": 6909,
    "Ä Replace": 6910,
    "objects": 6911,
    "Ä Metadata": 6912,
    "iry": 6913,
    "nable": 6914,
    "PTY": 6915,
    "Ä otherlv": 6916,
    "Ä rgb": 6917,
    "Members": 6918,
    "Handlers": 6919,
    "Ä touch": 6920,
    "Ä mon": 6921,
    "Ä locales": 6922,
    "append": 6923,
    "Ä oauth": 6924,
    "uman": 6925,
    "Seq": 6926,
    "Ä getNext": 6927,
    "Ä vertices": 6928,
    "Lif": 6929,
    "Ä expire": 6930,
    "unct": 6931,
    "Ä confirm": 6932,
    "wo": 6933,
    "izable": 6934,
    "Ä incoming": 6935,
    "Ä Bind": 6936,
    "Ä INSTANCE": 6937,
    "31": 6938,
    "escape": 6939,
    "Ä tpl": 6940,
    "Ä cond": 6941,
    "Ä One": 6942,
    "-\\": 6943,
    "Ä maybe": 6944,
    "Ä ErrInvalid": 6945,
    "Editor": 6946,
    "Ms": 6947,
    "lastic": 6948,
    "READ": 6949,
    "WE": 6950,
    "pet": 6951,
    "Span": 6952,
    "Ä BY": 6953,
    "II": 6954,
    "Real": 6955,
    "Ä trunc": 6956,
    "Ä dd": 6957,
    "Ä assigned": 6958,
    "Ä solution": 6959,
    "Retrieves": 6960,
    "Ä Endpoint": 6961,
    "Ä errs": 6962,
    "Ä sever": 6963,
    "AIN": 6964,
    "Ä ox": 6965,
    "Ä featureID": 6966,
    "Ä anything": 6967,
    "ots": 6968,
    "Ä 25": 6969,
    "Ä decimal": 6970,
    "ASK": 6971,
    "Ä asc": 6972,
    "ros": 6973,
    "Ä Count": 6974,
    "+)": 6975,
    "200": 6976,
    "Ä \"{$": 6977,
    "Ä book": 6978,
    "quent": 6979,
    "Ä collections": 6980,
    "Machine": 6981,
    "pad": 6982,
    "Ä ctypes": 6983,
    "Ä anchor": 6984,
    "Ä reshape": 6985,
    "Ä mesh": 6986,
    "Ä Render": 6987,
    "Ä Void": 6988,
    "Ä MIN": 6989,
    "LOBAL": 6990,
    "Ä cost": 6991,
    "Ä '`": 6992,
    "Ä getLocal": 6993,
    "agraph": 6994,
    "xa": 6995,
    "plica": 6996,
    "GR": 6997,
    "MetaData": 6998,
    "Structure": 6999,
    "codes": 7000,
    "Apply": 7001,
    "Hint": 7002,
    "Partition": 7003,
    "Ä SIG": 7004,
    "Ä turn": 7005,
    "Ä distribution": 7006,
    "updated": 7007,
    "ons": 7008,
    "Allow": 7009,
    "Ä ÄŠ": 7010,
    "LENG": 7011,
    "Ä Parameters": 7012,
    "Reset": 7013,
    "Generic": 7014,
    "found": 7015,
    "Ä managed": 7016,
    "pection": 7017,
    "Compute": 7018,
    "Defaults": 7019,
    "mm": 7020,
    "Ä extended": 7021,
    "ITION": 7022,
    "Ä \"\\\"": 7023,
    "Ä PI": 7024,
    "configuration": 7025,
    "Ä Af": 7026,
    "multi": 7027,
    "rout": 7028,
    "Ä calc": 7029,
    "Xbase": 7030,
    "RES": 7031,
    "tab": 7032,
    "Ä incre": 7033,
    "ration": 7034,
    "Ä cart": 7035,
    "None": 7036,
    "Hex": 7037,
    "MODE": 7038,
    "attrs": 7039,
    "Ä getSub": 7040,
    "Ä resize": 7041,
    "SESSION": 7042,
    "gl": 7043,
    "Clause": 7044,
    "Ä deferred": 7045,
    "ysical": 7046,
    "Ä aggregate": 7047,
    "wait": 7048,
    "Pop": 7049,
    "Ä Location": 7050,
    "Running": 7051,
    "Ä blank": 7052,
    "ital": 7053,
    "Ä NotFound": 7054,
    "Ret": 7055,
    "Ä ssh": 7056,
    "POS": 7057,
    "Ä DeepCopy": 7058,
    "Ä \"#{": 7059,
    "Ä getter": 7060,
    "views": 7061,
    "Ä vec": 7062,
    "usion": 7063,
    "asket": 7064,
    "Ä bootstrap": 7065,
    "cfg": 7066,
    "eration": 7067,
    "Ä SY": 7068,
    "Character": 7069,
    "...\"": 7070,
    "Ä PRE": 7071,
    "iation": 7072,
    "]{": 7073,
    "Ä Save": 7074,
    "Ä wx": 7075,
    "LY": 7076,
    "Ä stringify": 7077,
    "Marker": 7078,
    "mean": 7079,
    "uuid": 7080,
    "Ä bs": 7081,
    "riterion": 7082,
    "Fault": 7083,
    "Ä servers": 7084,
    "LIST": 7085,
    "Bus": 7086,
    "Unlock": 7087,
    "plan": 7088,
    "izations": 7089,
    "Ä Requests": 7090,
    "lim": 7091,
    "Ä pin": 7092,
    "Ä keywords": 7093,
    "records": 7094,
    "currency": 7095,
    "LENGTH": 7096,
    "cached": 7097,
    "control": 7098,
    "arguments": 7099,
    "Links": 7100,
    "mediately": 7101,
    "amma": 7102,
    "Ä aff": 7103,
    "Ä hasOwnProperty": 7104,
    "Ä Trim": 7105,
    "obile": 7106,
    "Ä Pointer": 7107,
    "Branch": 7108,
    "Download": 7109,
    "Ä Variable": 7110,
    "Ä consist": 7111,
    "vation": 7112,
    "GE": 7113,
    "Ä difference": 7114,
    "Ä IDs": 7115,
    "ournal": 7116,
    "olang": 7117,
    "hex": 7118,
    "ble": 7119,
    "Ä executed": 7120,
    "ynchronous": 7121,
    "Ä cach": 7122,
    "Ä ability": 7123,
    "zero": 7124,
    "Ä la": 7125,
    "edge": 7126,
    "Ä unsafe": 7127,
    "Ä STR": 7128,
    "Ä bb": 7129,
    "Definitions": 7130,
    "AUTH": 7131,
    "40": 7132,
    "flags": 7133,
    "Collector": 7134,
    "links": 7135,
    "Ä STATUS": 7136,
    "boot": 7137,
    "Ä rb": 7138,
    "features": 7139,
    "85": 7140,
    "Ä EM": 7141,
    "fc": 7142,
    "strument": 7143,
    "Ä longer": 7144,
    "Ä Grid": 7145,
    "ips": 7146,
    "TableName": 7147,
    "Addresses": 7148,
    "Ä Atom": 7149,
    "Aut": 7150,
    "Ä Reset": 7151,
    "Ä delegate": 7152,
    "Ä loading": 7153,
    "Ä polygon": 7154,
    "Ä focus": 7155,
    "Ä getLogger": 7156,
    "Ä removes": 7157,
    "Ä literal": 7158,
    "PHP": 7159,
    "Ä obs": 7160,
    "Ä obtain": 7161,
    "Ä getG": 7162,
    "generate": 7163,
    "Ä \\'": 7164,
    "Ä made": 7165,
    "Ä devices": 7166,
    "Fr": 7167,
    "Ä stub": 7168,
    "Ä ratio": 7169,
    "Zero": 7170,
    "Components": 7171,
    "Backend": 7172,
    "Changes": 7173,
    "Association": 7174,
    "symbol": 7175,
    "Ä assets": 7176,
    "Excel": 7177,
    "Ä sections": 7178,
    "plex": 7179,
    "Ä ls": 7180,
    "WR": 7181,
    "Ä zoom": 7182,
    "Ä getSession": 7183,
    "Ä pg": 7184,
    "Temp": 7185,
    "Ä unlock": 7186,
    "Monitor": 7187,
    "ittle": 7188,
    "Shop": 7189,
    "Ä Fields": 7190,
    "Ä assoc": 7191,
    "BR": 7192,
    "It": 7193,
    "Ä wrong": 7194,
    "Ä regexp": 7195,
    "Ä tagName": 7196,
    "Measure": 7197,
    "____": 7198,
    "catalog": 7199,
    "Distance": 7200,
    "dc": 7201,
    "Ä Top": 7202,
    "CONFIG": 7203,
    "Encoder": 7204,
    "direct": 7205,
    "Ä hosts": 7206,
    "Ä DataFrame": 7207,
    "former": 7208,
    "ootstrap": 7209,
    "Off": 7210,
    "Ä ln": 7211,
    "Ä power": 7212,
    "Ä closure": 7213,
    "Ä Limit": 7214,
    "APP": 7215,
    "fit": 7216,
    "Ä deepcopy": 7217,
    "Ä completes": 7218,
    "Ä mysql": 7219,
    "Ä responses": 7220,
    "Ä Unsupported": 7221,
    "remote": 7222,
    "Supported": 7223,
    "Ä Public": 7224,
    "?\"": 7225,
    "Ä appe": 7226,
    "Ä overlap": 7227,
    "EC": 7228,
    "byte": 7229,
    "Ä parallel": 7230,
    "Criteria": 7231,
    "Ä remain": 7232,
    "Ä complex": 7233,
    "Ä parentNode": 7234,
    "79": 7235,
    "internal": 7236,
    "Ä cookies": 7237,
    "feature": 7238,
    "Ä cwd": 7239,
    "COUNT": 7240,
    "Ä legend": 7241,
    "bucket": 7242,
    "Ä previously": 7243,
    "Div": 7244,
    "EW": 7245,
    "Ä choices": 7246,
    "Ä OP": 7247,
    "cestor": 7248,
    "Construct": 7249,
    "__'": 7250,
    "Ä Cur": 7251,
    "Ä Immutable": 7252,
    "ooter": 7253,
    "FORMAT": 7254,
    "Ä Closure": 7255,
    "hr": 7256,
    "Ä Tuple": 7257,
    "Ä HttpServlet": 7258,
    "pi": 7259,
    "ongs": 7260,
    "Ä encoder": 7261,
    "Ä writes": 7262,
    "FIN": 7263,
    "Ä eas": 7264,
    "Ä RuntimeError": 7265,
    "CI": 7266,
    "pages": 7267,
    "Ä clock": 7268,
    "Ä Virtual": 7269,
    "Ä OAuth": 7270,
    "Ä Rout": 7271,
    "Ä cancellation": 7272,
    "Ä END": 7273,
    "Ä guess": 7274,
    "Lang": 7275,
    "Jobs": 7276,
    "cloud": 7277,
    "Ä entire": 7278,
    "Ä Metric": 7279,
    "oauth": 7280,
    "Ä similar": 7281,
    "ka": 7282,
    "Ä Stack": 7283,
    "Ä Afplib": 7284,
    "drop": 7285,
    "Ä deploy": 7286,
    "FieldName": 7287,
    "Ä getMax": 7288,
    "Ä AfplibPackage": 7289,
    "Ä inc": 7290,
    "Ä player": 7291,
    "Ä spaces": 7292,
    "callable": 7293,
    "aper": 7294,
    "Score": 7295,
    "TES": 7296,
    "Ä makes": 7297,
    "Ä Matrix": 7298,
    "Ä sigma": 7299,
    "missions": 7300,
    "70": 7301,
    "Ä srv": 7302,
    "SM": 7303,
    "Ä enough": 7304,
    "CHAR": 7305,
    "OW": 7306,
    "failed": 7307,
    "Net": 7308,
    "ouch": 7309,
    "Ä \")\"": 7310,
    "Ä qb": 7311,
    "formed": 7312,
    "Ä sock": 7313,
    "Ä fi": 7314,
    "apes": 7315,
    "CCESS": 7316,
    "Ä Relation": 7317,
    "Ä compatible": 7318,
    "samples": 7319,
    "Ä Uint": 7320,
    "Ä '('": 7321,
    "Ä ranges": 7322,
    "Ä documentation": 7323,
    "Ä grade": 7324,
    "arty": 7325,
    "Ä interpol": 7326,
    "Ä individual": 7327,
    "usted": 7328,
    "aff": 7329,
    "look": 7330,
    "attach": 7331,
    "Patch": 7332,
    "Ä margin": 7333,
    "Ä jar": 7334,
    "Calendar": 7335,
    "Ä waiting": 7336,
    "missing": 7337,
    "Ä theta": 7338,
    "Ä whole": 7339,
    "sig": 7340,
    "Ä trailing": 7341,
    "modified": 7342,
    "Ä guide": 7343,
    "Ä mo": 7344,
    "xidEs": 7345,
    "xidEsales": 7346,
    "Ä encrypt": 7347,
    "Ä sid": 7348,
    "Ä interfaces": 7349,
    "Ä Interrupted": 7350,
    "Ä plain": 7351,
    "Ä klass": 7352,
    "Ä phone": 7353,
    "Ä Qt": 7354,
    "pan": 7355,
    "rott": 7356,
    "validator": 7357,
    "cb": 7358,
    "Css": 7359,
    "Ä After": 7360,
    "Ä views": 7361,
    "Ä Struct": 7362,
    "Words": 7363,
    "Ä geom": 7364,
    "Setup": 7365,
    "Ä Serial": 7366,
    "Ä decorator": 7367,
    "Ä expires": 7368,
    "images": 7369,
    "odo": 7370,
    "commit": 7371,
    "Ä handles": 7372,
    "mat": 7373,
    "binding": 7374,
    "EventListener": 7375,
    "Ä UP": 7376,
    "Ä Em": 7377,
    "Ä canonical": 7378,
    "brevi": 7379,
    "Ä hint": 7380,
    "Updated": 7381,
    "ench": 7382,
    "Ä CLASS": 7383,
    "Ä addChild": 7384,
    "erator": 7385,
    "ARL": 7386,
    "Done": 7387,
    "*\"": 7388,
    "Ä consum": 7389,
    "ONG": 7390,
    "Release": 7391,
    "ih": 7392,
    "Ä dispatcher": 7393,
    "Ä bindings": 7394,
    "Closed": 7395,
    "isf": 7396,
    "VM": 7397,
    "exist": 7398,
    "Ä considered": 7399,
    "Ä ByteBuffer": 7400,
    "Ä iterate": 7401,
    "Ä ruleJvm": 7402,
    "Ä threads": 7403,
    "Ä Volume": 7404,
    "mlink": 7405,
    "Ä Deploy": 7406,
    "driver": 7407,
    "Ä Bucket": 7408,
    "Ä 400": 7409,
    "Ä writing": 7410,
    "lab": 7411,
    "Ä transfer": 7412,
    "Visitor": 7413,
    "38": 7414,
    "secur": 7415,
    "Selected": 7416,
    "More": 7417,
    "Ä fully": 7418,
    "Ä SSL": 7419,
    "Mut": 7420,
    "Ä \"{}": 7421,
    "repo": 7422,
    "posed": 7423,
    "ems": 7424,
    "OPTION": 7425,
    "Ä getElement": 7426,
    "Ä golang": 7427,
    "Ä newRequest": 7428,
    "Ä documents": 7429,
    "Ä pm": 7430,
    "Ä JAX": 7431,
    "Lists": 7432,
    "Ä share": 7433,
    "Ä tests": 7434,
    "Ä optParams": 7435,
    "Ä Policy": 7436,
    "Capacity": 7437,
    "[\\": 7438,
    "irr": 7439,
    "Ä Proto": 7440,
    "ios": 7441,
    "Ä STATE": 7442,
    "Ä USER": 7443,
    "(.*": 7444,
    "vant": 7445,
    "plain": 7446,
    "Ä audio": 7447,
    "Ä nonce": 7448,
    "pn": 7449,
    "Ä Root": 7450,
    "Ä Child": 7451,
    "rpc": 7452,
    "sid": 7453,
    "Ä getModel": 7454,
    "Ä Ne": 7455,
    "Fragment": 7456,
    "skip": 7457,
    "inated": 7458,
    "ding": 7459,
    "Ä SO": 7460,
    "Ä substit": 7461,
    "security": 7462,
    "urable": 7463,
    "Bool": 7464,
    "Archive": 7465,
    "atom": 7466,
    "Ä relations": 7467,
    "Ä Zend": 7468,
    "Abstract": 7469,
    "Ä general": 7470,
    "Ä readable": 7471,
    "chan": 7472,
    "FOR": 7473,
    "SY": 7474,
    "click": 7475,
    "counter": 7476,
    "Ä capture": 7477,
    "shake": 7478,
    "Ä classname": 7479,
    "RENT": 7480,
    "Ä '>'": 7481,
    "rules": 7482,
    "Reads": 7483,
    "rollers": 7484,
    "Ä '{}'": 7485,
    "Ä setProperty": 7486,
    "Connector": 7487,
    "Ä embedded": 7488,
    "enerated": 7489,
    "Ä specification": 7490,
    "Ä timed": 7491,
    "MI": 7492,
    "Ä ul": 7493,
    "Ä good": 7494,
    "Ä attached": 7495,
    "month": 7496,
    "Ä OxidEsales": 7497,
    "Elem": 7498,
    "Ä Me": 7499,
    "branch": 7500,
    "Ä mid": 7501,
    "Ä routing": 7502,
    "Functions": 7503,
    "Ä cid": 7504,
    "Fixed": 7505,
    "raps": 7506,
    "Ä hours": 7507,
    "Ä Package": 7508,
    "CUR": 7509,
    "dt": 7510,
    "lin": 7511,
    "ivot": 7512,
    "Extensions": 7513,
    "Ä \"-\"": 7514,
    "Ä sentence": 7515,
    "Ä claim": 7516,
    "Ä pretty": 7517,
    "Ä Environment": 7518,
    "Ä capacity": 7519,
    "Initialize": 7520,
    "Ä getFirst": 7521,
    "riend": 7522,
    "itelist": 7523,
    "Ä mis": 7524,
    "master": 7525,
    "single": 7526,
    "Ä FILE": 7527,
    "variables": 7528,
    "Ä gene": 7529,
    "Ä Queue": 7530,
    "Ä attempts": 7531,
    "Ä finder": 7532,
    "Ä si": 7533,
    "TypeReference": 7534,
    "ENCE": 7535,
    "Ä lastIndex": 7536,
    "Units": 7537,
    "Ä svc": 7538,
    "Retry": 7539,
    "fil": 7540,
    "Ä ##": 7541,
    "Ä contained": 7542,
    "Prepare": 7543,
    "Drop": 7544,
    "Ä logged": 7545,
    "Ä conflict": 7546,
    "href": 7547,
    "versed": 7548,
    "chars": 7549,
    "clo": 7550,
    "Deletes": 7551,
    "Ä bounding": 7552,
    "Ä nodeName": 7553,
    "Ä ';'": 7554,
    "Ä eq": 7555,
    "une": 7556,
    "HEADER": 7557,
    "Ä InterruptedException": 7558,
    "Ä article": 7559,
    "Ä weekday": 7560,
    "Ä Provider": 7561,
    "scriptions": 7562,
    "Ä along": 7563,
    "Ä Walk": 7564,
    "Ä maps": 7565,
    "Ä (\"": 7566,
    "Ä TABLE": 7567,
    "Iss": 7568,
    "sent": 7569,
    "START": 7570,
    "Origin": 7571,
    "seconds": 7572,
    "Ä poly": 7573,
    "Ä userAgent": 7574,
    "Ä levels": 7575,
    "Ä Change": 7576,
    "Ä CFG": 7577,
    "Ä columnName": 7578,
    "Ä queryBuilder": 7579,
    "Ä nextPage": 7580,
    "Artifact": 7581,
    "Ä extr": 7582,
    "Endian": 7583,
    "regex": 7584,
    "watch": 7585,
    "Ä lineno": 7586,
    "Ä getBody": 7587,
    "qa": 7588,
    "enable": 7589,
    "redirect": 7590,
    "Ä FFDC": 7591,
    "Ä instruction": 7592,
    "cert": 7593,
    "agger": 7594,
    "Ä getLast": 7595,
    "rain": 7596,
    "Ä runs": 7597,
    "aa": 7598,
    "Ä cnt": 7599,
    "Ä fw": 7600,
    "Ä pylint": 7601,
    "Ä pow": 7602,
    "Ä ang": 7603,
    "Named": 7604,
    "Clean": 7605,
    "defaults": 7606,
    "Move": 7607,
    "Ä autog": 7608,
    "Ä dial": 7609,
    "Ä Eshop": 7610,
    "Ä bg": 7611,
    "Ä isNull": 7612,
    "resse": 7613,
    "Threshold": 7614,
    "Ä Don": 7615,
    "49": 7616,
    "Old": 7617,
    "LEMENT": 7618,
    "Ä intersection": 7619,
    "------------": 7620,
    "Push": 7621,
    "Ä ruleX": 7622,
    "Currency": 7623,
    "operation": 7624,
    "Ä fh": 7625,
    "essment": 7626,
    "structure": 7627,
    "Ä getH": 7628,
    "States": 7629,
    "Ä CmsResource": 7630,
    "Ä Second": 7631,
    "Ä epoch": 7632,
    "Ä endsWith": 7633,
    "Break": 7634,
    "Ä getClient": 7635,
    "Ä immediately": 7636,
    "ette": 7637,
    "aven": 7638,
    "ampling": 7639,
    "members": 7640,
    "cuss": 7641,
    "Gen": 7642,
    "Promise": 7643,
    "Ä mouse": 7644,
    "Ä JOIN": 7645,
    "artbe": 7646,
    "Ä closing": 7647,
    "payload": 7648,
    "Ä WS": 7649,
    "~~": 7650,
    "Ä Basic": 7651,
    "note": 7652,
    "ored": 7653,
    "ester": 7654,
    "Infos": 7655,
    "Ä getRoot": 7656,
    "orph": 7657,
    "Ä Types": 7658,
    "Ä Proxy": 7659,
    "DED": 7660,
    "Ä JAXB": 7661,
    "Ä TH": 7662,
    "undles": 7663,
    "Ä detail": 7664,
    "models": 7665,
    "Ä repeat": 7666,
    "Fld": 7667,
    "Ä xy": 7668,
    "xd": 7669,
    "cm": 7670,
    "Ä care": 7671,
    "Ä poll": 7672,
    "Ä deserialize": 7673,
    "Ä iteritems": 7674,
    "().": 7675,
    "Ä leading": 7676,
    "06": 7677,
    "Quot": 7678,
    "Ä boundary": 7679,
    "Ä equivalent": 7680,
    "Ä handled": 7681,
    "Ä Ä Ä Ä Ä Ä Ä Ä Ä Ä Ä Ä Ä Ä Ä Ä Ä Ä Ä Ä Ä Ä Ä Ä ": 7682,
    "Ä scanner": 7683,
    "Ä freq": 7684,
    "Ä keySet": 7685,
    "Ä expiration": 7686,
    "summary": 7687,
    "real": 7688,
    "Ä middle": 7689,
    "ashes": 7690,
    "Ä statistics": 7691,
    "Ä Oper": 7692,
    "Ä Ensure": 7693,
    "inct": 7694,
    "Ä Co": 7695,
    "ertificates": 7696,
    "CLI": 7697,
    "PRI": 7698,
    "pdf": 7699,
    "IGHT": 7700,
    "Ä mv": 7701,
    "GIN": 7702,
    "Comput": 7703,
    "Ä Bean": 7704,
    "units": 7705,
    "Ä phi": 7706,
    "Ä ('": 7707,
    "Ä expired": 7708,
    "Ä 404": 7709,
    "illisec": 7710,
    "Ä rhs": 7711,
    "Ä clients": 7712,
    "Ä notNull": 7713,
    "gmt": 7714,
    "uples": 7715,
    "VAR": 7716,
    "Ä dirs": 7717,
    "Ä utf": 7718,
    "Sur": 7719,
    "Ä swap": 7720,
    "Ä black": 7721,
    "si": 7722,
    "Ä hdr": 7723,
    "Ä Pag": 7724,
    "Ä room": 7725,
    "ainten": 7726,
    "Ä Contexts": 7727,
    "Ä namespaces": 7728,
    "Assignment": 7729,
    "Ä Prepare": 7730,
    "Tax": 7731,
    "Ä dy": 7732,
    "Ä ME": 7733,
    "Ä Ä Ä Ä Ä Ä Ä Ä Ä Ä Ä Ä Ä Ä Ä ": 7734,
    "Logging": 7735,
    "Using": 7736,
    "vector": 7737,
    "Ä uni": 7738,
    "Ä Script": 7739,
    "Src": 7740,
    "Ä nl": 7741,
    "Mappings": 7742,
    "Ä compiled": 7743,
    "Attempt": 7744,
    "integer": 7745,
    "Builds": 7746,
    "Ä '(": 7747,
    "prob": 7748,
    "Ä reload": 7749,
    "Ä returnValue": 7750,
    "Ä \"(": 7751,
    "Ä able": 7752,
    "chemas": 7753,
    "enario": 7754,
    "pm": 7755,
    "Ä everything": 7756,
    "Ä thing": 7757,
    "Ä SER": 7758,
    "Ä converts": 7759,
    "Ä updater": 7760,
    "Ä nn": 7761,
    "Unexpected": 7762,
    "extra": 7763,
    "Ä oid": 7764,
    "Ä </": 7765,
    "Ä Test": 7766,
    "Ä PATH": 7767,
    "toupper": 7768,
    "Ä testing": 7769,
    "aintenance": 7770,
    "sk": 7771,
    "aming": 7772,
    "Ä EC": 7773,
    "roles": 7774,
    "TABLE": 7775,
    "Ä Rec": 7776,
    "Logs": 7777,
    "Ä Mult": 7778,
    "Ä GLOBAL": 7779,
    "Ä Ste": 7780,
    "sest": 7781,
    "Modules": 7782,
    "LOAD": 7783,
    "Ä Exp": 7784,
    "Ä eps": 7785,
    "Master": 7786,
    "Dependency": 7787,
    "FUNCTION": 7788,
    "Pk": 7789,
    "Indent": 7790,
    "Ä OK": 7791,
    "ventory": 7792,
    "Ä frames": 7793,
    "Ä setter": 7794,
    "scall": 7795,
    "Blank": 7796,
    "gy": 7797,
    "Processing": 7798,
    "Ä coordinate": 7799,
    "Extra": 7800,
    "Ä Please": 7801,
    "Health": 7802,
    "Chars": 7803,
    "Ä Timeout": 7804,
    "ClassLoader": 7805,
    "complet": 7806,
    "Ä Admin": 7807,
    "Ä Identity": 7808,
    "Ä SetContext": 7809,
    "Ä predict": 7810,
    "Ä dates": 7811,
    "Ä union": 7812,
    "download": 7813,
    "socket": 7814,
    "arrow": 7815,
    "Foreign": 7816,
    "Reply": 7817,
    "resol": 7818,
    "sha": 7819,
    "Ä assertions": 7820,
    "...'": 7821,
    "Ä Factory": 7822,
    "Generated": 7823,
    "Ä Chain": 7824,
    "orth": 7825,
    "Ä mixed": 7826,
    "Ä txn": 7827,
    "Sent": 7828,
    "Ä exchange": 7829,
    "Ä \"&": 7830,
    "Ä lb": 7831,
    "pod": 7832,
    "Try": 7833,
    "alyt": 7834,
    "Ä And": 7835,
    "associ": 7836,
    "Ä figure": 7837,
    "Ä locations": 7838,
    "Ä leaf": 7839,
    "Ä autogenerated": 7840,
    "Ä occurred": 7841,
    "Ä els": 7842,
    "Registration": 7843,
    "Ä better": 7844,
    "Ä OPTION": 7845,
    "Ä ResponseWriter": 7846,
    "commands": 7847,
    "feed": 7848,
    "Ä looking": 7849,
    "finity": 7850,
    "Ä )?": 7851,
    "Ä Allow": 7852,
    "Ä IPv": 7853,
    "Ä getIn": 7854,
    "Ä SET": 7855,
    "Ä geo": 7856,
    "subject": 7857,
    "memory": 7858,
    "Decor": 7859,
    "tokens": 7860,
    "Ä resolution": 7861,
    "allen": 7862,
    "Ä translations": 7863,
    "Ä sa": 7864,
    "Ä consume": 7865,
    ".%": 7866,
    "Ä Mock": 7867,
    "LAY": 7868,
    "Ä NonNull": 7869,
    "Ä restart": 7870,
    "Ä phpcs": 7871,
    "inner": 7872,
    "loss": 7873,
    "Ä describ": 7874,
    "Ä Secret": 7875,
    "Ä large": 7876,
    "Ä hard": 7877,
    "Ä qPath": 7878,
    "Ä WriteString": 7879,
    "Article": 7880,
    "Ä Feature": 7881,
    "avel": 7882,
    "Ä setText": 7883,
    "rand": 7884,
    "rence": 7885,
    "Ä declared": 7886,
    "Shared": 7887,
    "Ä major": 7888,
    "Ä getSource": 7889,
    "oodle": 7890,
    "Ä orient": 7891,
    "aren": 7892,
    "Ä Debugf": 7893,
    "Encryption": 7894,
    "Ä acl": 7895,
    "Ä Binary": 7896,
    "Ä Since": 7897,
    "ingerprint": 7898,
    "Ä respon": 7899,
    "VEL": 7900,
    "lar": 7901,
    "Ä endpoints": 7902,
    "Ä Execute": 7903,
    "ks": 7904,
    "Ä klog": 7905,
    "Ä lik": 7906,
    "Ä ATT": 7907,
    "cluded": 7908,
    "ognition": 7909,
    "Ä CO": 7910,
    "Ä getHeader": 7911,
    "Ä delivery": 7912,
    "CAL": 7913,
    "Ä registration": 7914,
    "thes": 7915,
    "Ä chat": 7916,
    "Ä meth": 7917,
    "\">'": 7918,
    "ality": 7919,
    "Ä game": 7920,
    "Ä crit": 7921,
    "Ä numberOf": 7922,
    "\")": 7923,
    "enum": 7924,
    "Ä Short": 7925,
    "Ä getError": 7926,
    "TAG": 7927,
    "Ä Generic": 7928,
    "Ä setData": 7929,
    "Ä Pack": 7930,
    "Ä subset": 7931,
    "Ä getSh": 7932,
    "Ä eventName": 7933,
    "Ä bug": 7934,
    "Ä rendered": 7935,
    "Ä grant": 7936,
    "IR": 7937,
    "Ä mx": 7938,
    "Revision": 7939,
    "aken": 7940,
    "]+)": 7941,
    "Ä ApplyOptions": 7942,
    "etic": 7943,
    "fp": 7944,
    "Ä face": 7945,
    "Segments": 7946,
    "TypeName": 7947,
    "mitted": 7948,
    "Ä Condition": 7949,
    "45": 7950,
    "Final": 7951,
    "WORD": 7952,
    "olid": 7953,
    "ORDER": 7954,
    "Ä jcas": 7955,
    "Screen": 7956,
    "Strings": 7957,
    "transaction": 7958,
    "norm": 7959,
    "Ä atomic": 7960,
    "Assignable": 7961,
    "Ä lazy": 7962,
    "Ä symbols": 7963,
    "Ä ByteArray": 7964,
    "Ä candidates": 7965,
    "Ä vt": 7966,
    "cluster": 7967,
    "Loads": 7968,
    "MB": 7969,
    "oment": 7970,
    "Ä Servlet": 7971,
    "Scan": 7972,
    "Ä printStackTrace": 7973,
    "ante": 7974,
    "Decoder": 7975,
    "Ä cd": 7976,
    "Deleted": 7977,
    "Ä plural": 7978,
    "viders": 7979,
    "Ä Deprec": 7980,
    "Ä AL": 7981,
    "AML": 7982,
    "Ä whitespace": 7983,
    "Chart": 7984,
    "Ä rw": 7985,
    "allback": 7986,
    "Ä crop": 7987,
    "porter": 7988,
    "align": 7989,
    "Ä mappings": 7990,
    "9999": 7991,
    "states": 7992,
    "Sim": 7993,
    "flux": 7994,
    "HO": 7995,
    "blocks": 7996,
    "theme": 7997,
    "STATE": 7998,
    "Ä having": 7999,
    "Ä visitor": 8000,
    "USE": 8001,
    "Ä Such": 8002,
    "endpoint": 8003,
    "extract": 8004,
    "Ä My": 8005,
    "Ä rollback": 8006,
    "cue": 8007,
    "counts": 8008,
    "].": 8009,
    "rus": 8010,
    "Cols": 8011,
    "Ä ez": 8012,
    "Ä formula": 8013,
    "Ä JSONObject": 8014,
    "Ä \\$": 8015,
    "posal": 8016,
    "Related": 8017,
    "Cost": 8018,
    "wall": 8019,
    "Ä CONT": 8020,
    "onymous": 8021,
    "ring": 8022,
    "Ä mform": 8023,
    "Ä blue": 8024,
    "PR": 8025,
    "Fill": 8026,
    "Ä recipient": 8027,
    "Ä arc": 8028,
    "EObject": 8029,
    "Ä '|'": 8030,
    "Ä Of": 8031,
    "Ä peek": 8032,
    "eeded": 8033,
    "SARL": 8034,
    "Ä digit": 8035,
    "Ä fc": 8036,
    "Ä launch": 8037,
    "Ä 128": 8038,
    "Ä mass": 8039,
    "Ä Insert": 8040,
    "Ä expressions": 8041,
    "Ä referenced": 8042,
    "Ä 17": 8043,
    "Ä minute": 8044,
    "Ä Returned": 8045,
    "ContentType": 8046,
    "TS": 8047,
    "Ä isIn": 8048,
    "Ä Ignore": 8049,
    "Ä Notification": 8050,
    "Super": 8051,
    "tuple": 8052,
    "Dependencies": 8053,
    "Ä noqa": 8054,
    "UMN": 8055,
    "Ä Statement": 8056,
    "plugins": 8057,
    "Ä Frame": 8058,
    "Ä estim": 8059,
    "iggers": 8060,
    "Ä ALL": 8061,
    "Configs": 8062,
    "Ä 40": 8063,
    "Ä Auto": 8064,
    "Ä Fetch": 8065,
    "tax": 8066,
    "Note": 8067,
    "Ä om": 8068,
    "Ä Bl": 8069,
    "Syntax": 8070,
    "Ä tp": 8071,
    "Ä Random": 8072,
    "Without": 8073,
    "Ä Expr": 8074,
    "coe": 8075,
    "fast": 8076,
    "Ä Vis": 8077,
    "cuit": 8078,
    "Ä ldap": 8079,
    "Ä Also": 8080,
    "'ve": 8081,
    "win": 8082,
    "Ä Det": 8083,
    "Cover": 8084,
    "ARD": 8085,
    "Ä Range": 8086,
    "RPC": 8087,
    "Ä getIndex": 8088,
    "Ä replaced": 8089,
    "FE": 8090,
    "Ä EObject": 8091,
    "AsString": 8092,
    "Ä newLine": 8093,
    "Ä Product": 8094,
    "Ä exports": 8095,
    "Ä intval": 8096,
    "Verify": 8097,
    "Ä TLS": 8098,
    "Ä compress": 8099,
    "Ä servlet": 8100,
    "egative": 8101,
    "Ä currentTimeMillis": 8102,
    "python": 8103,
    "Ä accepts": 8104,
    "Marshal": 8105,
    "Ä projection": 8106,
    "Border": 8107,
    "Entities": 8108,
    "selected": 8109,
    "Routes": 8110,
    "kernel": 8111,
    "Ä recur": 8112,
    "Organization": 8113,
    "artbeat": 8114,
    "Require": 8115,
    "Defined": 8116,
    "sym": 8117,
    "sheet": 8118,
    "components": 8119,
    "Ä getSimple": 8120,
    "Ä provides": 8121,
    "Ä explicitly": 8122,
    "Ä chrom": 8123,
    "Ä scopes": 8124,
    "ilent": 8125,
    "Ä Mode": 8126,
    "pli": 8127,
    "Ä Resources": 8128,
    "Ä scheduler": 8129,
    "lide": 8130,
    "Ä daemon": 8131,
    "Ops": 8132,
    "phab": 8133,
    "sn": 8134,
    "Tracker": 8135,
    "Ä scalarNode": 8136,
    "Ä convertTo": 8137,
    "ipt": 8138,
    "Ä Strings": 8139,
    "tended": 8140,
    "Feed": 8141,
    "Country": 8142,
    "Ä getItem": 8143,
    "Ä appends": 8144,
    "Ä getInt": 8145,
    "Ä magic": 8146,
    "Ä strtoupper": 8147,
    "69": 8148,
    "Begin": 8149,
    "Ä BigDecimal": 8150,
    "allowed": 8151,
    "Ä Extract": 8152,
    "cedure": 8153,
    "Ä getChild": 8154,
    "Ä Compute": 8155,
    "Ä resulting": 8156,
    "ssl": 8157,
    "aved": 8158,
    "Ä Timestamp": 8159,
    "astic": 8160,
    "atible": 8161,
    "going": 8162,
    "atable": 8163,
    "Ä average": 8164,
    "AMETER": 8165,
    "Ä Email": 8166,
    "lower": 8167,
    "DOM": 8168,
    "Ä pdf": 8169,
    "Ä crypto": 8170,
    "Ä tensor": 8171,
    "unknown": 8172,
    "Ä typeName": 8173,
    "Ä interp": 8174,
    "Ä AN": 8175,
    "Original": 8176,
    "Ä secure": 8177,
    "([^": 8178,
    "Ä structs": 8179,
    "Relationship": 8180,
    "Ä limits": 8181,
    "Hub": 8182,
    "Priority": 8183,
    "oned": 8184,
    "Called": 8185,
    "Ä serviceCallback": 8186,
    "Ä invoked": 8187,
    "IV": 8188,
    "history": 8189,
    "ster": 8190,
    "Ä languages": 8191,
    "ools": 8192,
    "Ä Transl": 8193,
    "Ä nc": 8194,
    "signature": 8195,
    "ENER": 8196,
    "Ä isN": 8197,
    "Cfg": 8198,
    "Background": 8199,
    "Ä puts": 8200,
    "Platform": 8201,
    "Ä Windows": 8202,
    "ivile": 8203,
    "58": 8204,
    "Ä streams": 8205,
    "MM": 8206,
    "Flush": 8207,
    "Ä prepared": 8208,
    "Ä ucfirst": 8209,
    "Ä OUT": 8210,
    "Second": 8211,
    "Direction": 8212,
    "Assert": 8213,
    "Ä properly": 8214,
    "Ä audit": 8215,
    "Ä intern": 8216,
    "UPDATE": 8217,
    "Templates": 8218,
    "entries": 8219,
    "Ä outside": 8220,
    "References": 8221,
    "println": 8222,
    "Ä rescue": 8223,
    "Ä combined": 8224,
    "Ä primitive": 8225,
    "Ä ann": 8226,
    "Ä Ä Ä Ä Ä Ä Ä Ä Ä Ä Ä Ä Ä Ä Ä Ä Ä Ä Ä Ä Ä ": 8227,
    "Ä pp": 8228,
    "Sheet": 8229,
    "entr": 8230,
    "Ä 31": 8231,
    "Ä tar": 8232,
    "Ä EClass": 8233,
    "ainers": 8234,
    "Accessor": 8235,
    "example": 8236,
    "Ä awt": 8237,
    "det": 8238,
    "Ä prediction": 8239,
    "otion": 8240,
    "Workspace": 8241,
    "icates": 8242,
    "once": 8243,
    "Ä ge": 8244,
    "Ä HTTPMethod": 8245,
    "alformed": 8246,
    "Ä [\"": 8247,
    "Ä getPr": 8248,
    "Ä implemented": 8249,
    "velop": 8250,
    "Ä VM": 8251,
    "Basic": 8252,
    "Ä rt": 8253,
    "Ä prepend": 8254,
    "Ä unlink": 8255,
    "outil": 8256,
    "Ä framework": 8257,
    "primary": 8258,
    "Router": 8259,
    "Ä mux": 8260,
    "Ä getRepository": 8261,
    "Attrs": 8262,
    "Ä Standard": 8263,
    "Ä He": 8264,
    "nost": 8265,
    "Ä declaration": 8266,
    "Sig": 8267,
    "allery": 8268,
    "Ä Stat": 8269,
    "leet": 8270,
    "ays": 8271,
    "Ä whose": 8272,
    "Ä encounter": 8273,
    "erance": 8274,
    "Ä po": 8275,
    "Ä CLI": 8276,
    "Ä training": 8277,
    "Ä phpcsFile": 8278,
    "Ä apps": 8279,
    "Ä bulk": 8280,
    "Ä design": 8281,
    "Throw": 8282,
    "LIMIT": 8283,
    "');": 8284,
    "78": 8285,
    "Ä inf": 8286,
    "ClientExecution": 8287,
    "Ä ix": 8288,
    "Ä Connect": 8289,
    "Other": 8290,
    "dirs": 8291,
    "Ä scal": 8292,
    "times": 8293,
    "Ä kub": 8294,
    "Ä RPC": 8295,
    "Ä issues": 8296,
    "Ä getBase": 8297,
    "progress": 8298,
    "irror": 8299,
    "yper": 8300,
    "Ä cent": 8301,
    "ij": 8302,
    "Ä 256": 8303,
    "Ä ndarray": 8304,
    "auge": 8305,
    "zure": 8306,
    "Ä adj": 8307,
    "Ä beforeClientExecution": 8308,
    "Replication": 8309,
    "Ä ASC": 8310,
    "Ä concaten": 8311,
    "Ä advance": 8312,
    "fd": 8313,
    "'\\": 8314,
    "Ä Each": 8315,
    "Ä detected": 8316,
    "Enable": 8317,
    "GN": 8318,
    "Transformer": 8319,
    "Ä decoder": 8320,
    "Even": 8321,
    "Ä inverse": 8322,
    "Refresh": 8323,
    "Ä loss": 8324,
    "SHA": 8325,
    "Ä cpu": 8326,
    "Ä actor": 8327,
    "Follow": 8328,
    "Leg": 8329,
    "Ä fraction": 8330,
    "Ä grammarAccess": 8331,
    "Ä tl": 8332,
    "Ä translator": 8333,
    "readcr": 8334,
    "Theme": 8335,
    "Standard": 8336,
    "Ä bases": 8337,
    "`.": 8338,
    "userid": 8339,
    "Ä IOError": 8340,
    "Ä pip": 8341,
    "rot": 8342,
    "Ä getVersion": 8343,
    "Ä Geometry": 8344,
    "Ä escaped": 8345,
    "Person": 8346,
    "Ä Codes": 8347,
    "Ä ENT": 8348,
    "Ä sd": 8349,
    "Ä VAR": 8350,
    "Previous": 8351,
    "MAP": 8352,
    "Ä depending": 8353,
    "Ä rr": 8354,
    "ADD": 8355,
    "Ä Criteria": 8356,
    "ANGE": 8357,
    "Ä TAG": 8358,
    "Ä Complet": 8359,
    "Ä transformer": 8360,
    "Ä Scan": 8361,
    "SUB": 8362,
    "Ä dead": 8363,
    "Ä completion": 8364,
    "pg": 8365,
    "\"`": 8366,
    "Ready": 8367,
    "Writes": 8368,
    "BASE": 8369,
    "Ä Sequence": 8370,
    "ational": 8371,
    "Ä RFC": 8372,
    "protocol": 8373,
    "Ä trying": 8374,
    "Ä '['": 8375,
    "wrapper": 8376,
    "au": 8377,
    "Ä HTTPPath": 8378,
    "escriptors": 8379,
    "Ä Unit": 8380,
    "False": 8381,
    "Js": 8382,
    "icles": 8383,
    "ius": 8384,
    "Reason": 8385,
    "ounce": 8386,
    "services": 8387,
    "PARAM": 8388,
    "sync": 8389,
    "Produ": 8390,
    "Ä commun": 8391,
    "Ä REST": 8392,
    "Ä ioutil": 8393,
    "disable": 8394,
    "\"\"\"": 8395,
    "zen": 8396,
    "Ä wg": 8397,
    "Ä Contains": 8398,
    "Ä recent": 8399,
    "Ä upgrade": 8400,
    "setup": 8401,
    "Ä errno": 8402,
    ".\\": 8403,
    "ERY": 8404,
    "ropy": 8405,
    "Ä expanded": 8406,
    "Ä InternalSARL": 8407,
    "Ä Db": 8408,
    "SERT": 8409,
    "Percent": 8410,
    "Ä astype": 8411,
    "TOKEN": 8412,
    "Ä nullable": 8413,
    "iece": 8414,
    "Ä ServiceFuture": 8415,
    "Ä ceil": 8416,
    "cookie": 8417,
    "NotExist": 8418,
    "Ä runner": 8419,
    "Ä decrypt": 8420,
    "sures": 8421,
    "Ä \"\\\\": 8422,
    "ASS": 8423,
    "ifiable": 8424,
    "Ä getBytes": 8425,
    "izers": 8426,
    "Ä bond": 8427,
    "Shard": 8428,
    "Ä live": 8429,
    "Models": 8430,
    "Ä foo": 8431,
    "Ä RUnlock": 8432,
    "Ä requirements": 8433,
    "authorized": 8434,
    "Ä beginning": 8435,
    "matches": 8436,
    "Ä health": 8437,
    "Multiple": 8438,
    "Ä minor": 8439,
    "oltip": 8440,
    "Finder": 8441,
    "Ä nm": 8442,
    "owner": 8443,
    "Ä Callback": 8444,
    "Ä FIL": 8445,
    "Ä Dir": 8446,
    "Ä credential": 8447,
    "Escape": 8448,
    "Center": 8449,
    "ci": 8450,
    "Ä sess": 8451,
    "atory": 8452,
    "Ä sizes": 8453,
    "lems": 8454,
    "gable": 8455,
    "Ä VERSION": 8456,
    "priority": 8457,
    "etween": 8458,
    "Ä linked": 8459,
    "Resolve": 8460,
    "Getter": 8461,
    "Ä won": 8462,
    "Ä sequences": 8463,
    "oss": 8464,
    "Setter": 8465,
    "Ä tenant": 8466,
    "Angle": 8467,
    "GROUP": 8468,
    "Ä getAbsolute": 8469,
    "Ä computed": 8470,
    "Scaling": 8471,
    "Ä bbox": 8472,
    "Ä nextPageLink": 8473,
    "Ä scores": 8474,
    "Ä containers": 8475,
    "INK": 8476,
    "suffix": 8477,
    "Mer": 8478,
    "Ä ack": 8479,
    "Ä repr": 8480,
    "dump": 8481,
    "ivation": 8482,
    "embed": 8483,
    "Workflow": 8484,
    "Pane": 8485,
    "Ä IFC": 8486,
    "Ä Objects": 8487,
    "Ä processes": 8488,
    "ze": 8489,
    "uting": 8490,
    "tegr": 8491,
    "Ä give": 8492,
    "Ä TO": 8493,
    "Ä accepted": 8494,
    "CACHE": 8495,
    "Please": 8496,
    "Ä Annot": 8497,
    "Ä theEObject": 8498,
    "Ä lhs": 8499,
    "Shape": 8500,
    "move": 8501,
    "templates": 8502,
    "Ä Net": 8503,
    "Sample": 8504,
    "Ä Redis": 8505,
    "CATION": 8506,
    "clear": 8507,
    "Ä fq": 8508,
    "Ä Permission": 8509,
    "Ä Global": 8510,
    "Ä JAXBElement": 8511,
    "Ä lexer": 8512,
    "Ä tools": 8513,
    "Forward": 8514,
    "Ä submission": 8515,
    "ColumnName": 8516,
    "Den": 8517,
    "UMENT": 8518,
    "Determine": 8519,
    "TagName": 8520,
    "URN": 8521,
    "cf": 8522,
    "Errs": 8523,
    "Ä Ordered": 8524,
    "allenge": 8525,
    "[]": 8526,
    "Ä indicates": 8527,
    "Ä asList": 8528,
    "Random": 8529,
    "\\\"\"": 8530,
    "Ä wildcard": 8531,
    "docs": 8532,
    "Ä Org": 8533,
    "Ä rotate": 8534,
    "?)": 8535,
    "Ä recursively": 8536,
    "connected": 8537,
    "second": 8538,
    "Ä Bundle": 8539,
    "Ä isAssignable": 8540,
    "Ratio": 8541,
    "alytics": 8542,
    "Ä collector": 8543,
    "Unsupported": 8544,
    "Conditions": 8545,
    "XY": 8546,
    "Ä Push": 8547,
    "!!": 8548,
    "Ä Box": 8549,
    "dims": 8550,
    "warning": 8551,
    "ARRAY": 8552,
    "Ä Verify": 8553,
    "Ä going": 8554,
    "Ä potential": 8555,
    "Ä vendor": 8556,
    "Ä getWidth": 8557,
    "Ä Manager": 8558,
    "cons": 8559,
    "NULL": 8560,
    "Ä composer": 8561,
    "udget": 8562,
    "Ä FIX": 8563,
    "unnel": 8564,
    "Ä Symbol": 8565,
    "Ä 90": 8566,
    "---------": 8567,
    "Ä DELETE": 8568,
    "Statistics": 8569,
    "Rot": 8570,
    "Ä getTarget": 8571,
    "Ä very": 8572,
    "High": 8573,
    "Relative": 8574,
    "Username": 8575,
    "Ä square": 8576,
    "Ä getCache": 8577,
    "binary": 8578,
    "Pending": 8579,
    "Ä getHost": 8580,
    "Ä rx": 8581,
    "Ä YANG": 8582,
    "Compare": 8583,
    "tim": 8584,
    "Fix": 8585,
    "Ä locked": 8586,
    "Ä Deployment": 8587,
    "WT": 8588,
    "Ä cycle": 8589,
    "Ä getSimpleName": 8590,
    "inst": 8591,
    "PAT": 8592,
    "exit": 8593,
    "Ä Enc": 8594,
    "ooth": 8595,
    "Ä Member": 8596,
    "DataSource": 8597,
    "KNO": 8598,
    "Ä Pair": 8599,
    "deleted": 8600,
    "Ä getResult": 8601,
    "Added": 8602,
    "Ä Zip": 8603,
    "%'": 8604,
    "Credential": 8605,
    "rece": 8606,
    "ORE": 8607,
    "STATUS": 8608,
    "DN": 8609,
    "eces": 8610,
    "Dimension": 8611,
    "wp": 8612,
    "visible": 8613,
    "Ä Cell": 8614,
    "Specification": 8615,
    "Ä simply": 8616,
    "Ä prox": 8617,
    "Ä )*": 8618,
    "attem": 8619,
    "Ä transformation": 8620,
    "Ä stdClass": 8621,
    "eval": 8622,
    "Ä ))": 8623,
    "Ä ')": 8624,
    "Ä broker": 8625,
    "Ä certain": 8626,
    "QUI": 8627,
    "Sources": 8628,
    "kt": 8629,
    "Ä license": 8630,
    "ippet": 8631,
    "Ä speed": 8632,
    "ASC": 8633,
    "Predicate": 8634,
    "Ä getStart": 8635,
    "aemon": 8636,
    "}{": 8637,
    "expr": 8638,
    "Indexes": 8639,
    "DP": 8640,
    "Ä ']'": 8641,
    "07": 8642,
    "53": 8643,
    "Implemented": 8644,
    "rompt": 8645,
    "Ä These": 8646,
    "Adresse": 8647,
    "Hist": 8648,
    "Nested": 8649,
    "Same": 8650,
    "Ä terminal": 8651,
    "Ä NewErrParamRequired": 8652,
    "ru": 8653,
    "Ä really": 8654,
    "Ä directive": 8655,
    "Ä probably": 8656,
    "Ä startTime": 8657,
    "HashMap": 8658,
    "Ä Attach": 8659,
    "Ä Man": 8660,
    "Ä combine": 8661,
    "Ä Accept": 8662,
    "Ä MOD": 8663,
    "lookup": 8664,
    "Ä Authentication": 8665,
    "fmt": 8666,
    "Ä suc": 8667,
    "Ä GLOBALS": 8668,
    "Ä Agent": 8669,
    "Ä frequency": 8670,
    "Ä Msg": 8671,
    "Ä human": 8672,
    "Ä kill": 8673,
    "Now": 8674,
    "Ä reached": 8675,
    "apsed": 8676,
    "Ä Done": 8677,
    "Ä DS": 8678,
    "uggest": 8679,
    "Ä elsif": 8680,
    "Ä observ": 8681,
    "dataset": 8682,
    "mo": 8683,
    "Home": 8684,
    "validation": 8685,
    "Ä represents": 8686,
    "Ä Execution": 8687,
    "variant": 8688,
    "Team": 8689,
    "Ä PHPExcel": 8690,
    "kit": 8691,
    "expression": 8692,
    "Ä Step": 8693,
    "price": 8694,
    "Calculate": 8695,
    "Features": 8696,
    "Ä cas": 8697,
    "console": 8698,
    "threshold": 8699,
    "processor": 8700,
    "Ä gettype": 8701,
    "Ä iso": 8702,
    "Ä connector": 8703,
    "running": 8704,
    "verify": 8705,
    "Ä Report": 8706,
    "ained": 8707,
    "Qualified": 8708,
    "Ä Settings": 8709,
    "Ä alignment": 8710,
    "avascript": 8711,
    "home": 8712,
    "ATTRI": 8713,
    "fficient": 8714,
    "Ä rp": 8715,
    "Ä comma": 8716,
    "RM": 8717,
    "Ä RLock": 8718,
    "Ä qs": 8719,
    "BACK": 8720,
    "Ä TIME": 8721,
    "GroupId": 8722,
    "MESSAGE": 8723,
    "Ä experiment": 8724,
    "Mount": 8725,
    "Ä Private": 8726,
    "Ä syscall": 8727,
    "Blocking": 8728,
    "QUAL": 8729,
    "Ä DATA": 8730,
    "Ä encryption": 8731,
    "IE": 8732,
    "Ä msgs": 8733,
    "done": 8734,
    "Ä reserved": 8735,
    "Keyword": 8736,
    "Ä plus": 8737,
    "Ä offsets": 8738,
    "Ä tb": 8739,
    "Ä deps": 8740,
    "Ä hydr": 8741,
    "Ä getting": 8742,
    "Ä 01": 8743,
    "NODE": 8744,
    "Ä setdefault": 8745,
    "edges": 8746,
    "Ä gridBagConstraints": 8747,
    "scalar": 8748,
    "46": 8749,
    "Ä Tags": 8750,
    "Ä developer": 8751,
    "Include": 8752,
    "urther": 8753,
    "SCA": 8754,
    "Stage": 8755,
    "Ä outfile": 8756,
    "LOGGER": 8757,
    "Ä Socket": 8758,
    "bad": 8759,
    "duration": 8760,
    "atar": 8761,
    "Ä respect": 8762,
    "Alloc": 8763,
    "Slot": 8764,
    "Ä www": 8765,
    "high": 8766,
    "ini": 8767,
    "positories": 8768,
    "Ä Normal": 8769,
    "Ä abstract": 8770,
    "Ä optionally": 8771,
    "Ä pw": 8772,
    "itation": 8773,
    "pa": 8774,
    "Ä nav": 8775,
    "Indices": 8776,
    "ServerError": 8777,
    "95": 8778,
    "Ä nv": 8779,
    "creen": 8780,
    "sibly": 8781,
    "Describe": 8782,
    "Ä correctly": 8783,
    "PK": 8784,
    "atives": 8785,
    "alette": 8786,
    "Ä \"@": 8787,
    "Handles": 8788,
    "Ä Av": 8789,
    "DAP": 8790,
    "Repo": 8791,
    "rest": 8792,
    "Ä ol": 8793,
    "Ä animation": 8794,
    "Ä SC": 8795,
    "Ä rtrim": 8796,
    "OFF": 8797,
    "Pipeline": 8798,
    "vec": 8799,
    "Ä dn": 8800,
    "Ä stdin": 8801,
    "Ä \"_\"": 8802,
    "Ä Retrie": 8803,
    "Like": 8804,
    "IES": 8805,
    "ane": 8806,
    "osity": 8807,
    "Ä indexed": 8808,
    "Ok": 8809,
    "igu": 8810,
    "Ä setType": 8811,
    "generator": 8812,
    "truct": 8813,
    "Ä isfile": 8814,
    "border": 8815,
    "Ä half": 8816,
    "Ä arraycopy": 8817,
    "serial": 8818,
    "IDTH": 8819,
    "break": 8820,
    "Ä subnet": 8821,
    "Ä accumul": 8822,
    "Ä drag": 8823,
    "andidate": 8824,
    "Policies": 8825,
    "ByteArray": 8826,
    "Ä isNot": 8827,
    "Ä Pool": 8828,
    "ograph": 8829,
    "original": 8830,
    "Ä IAtom": 8831,
    "Dom": 8832,
    "Ä ErrInvalidParams": 8833,
    "Ä Lookup": 8834,
    "Loaded": 8835,
    "rac": 8836,
    "execute": 8837,
    "cha": 8838,
    "Ä highlight": 8839,
    "decl": 8840,
    "Ä primaryKey": 8841,
    "Ä pagination": 8842,
    "Ä pay": 8843,
    "icator": 8844,
    "Ä excluded": 8845,
    "Ä months": 8846,
    "Checker": 8847,
    "itemap": 8848,
    "percent": 8849,
    "Transition": 8850,
    "Ä leave": 8851,
    "iag": 8852,
    "Disabled": 8853,
    "Ä past": 8854,
    "Ä Sql": 8855,
    "Ä sessions": 8856,
    "Ä Active": 8857,
    "Ä DNS": 8858,
    "Ä gc": 8859,
    "Stamp": 8860,
    "Ä Params": 8861,
    "Ä comparator": 8862,
    "\");": 8863,
    "rm": 8864,
    "ern": 8865,
    "Ä legacy": 8866,
    "Equals": 8867,
    "essaging": 8868,
    "secure": 8869,
    "Dev": 8870,
    "Ä locator": 8871,
    "Received": 8872,
    "Ä scripts": 8873,
    "etency": 8874,
    "48": 8875,
    "CB": 8876,
    "JB": 8877,
    "cussion": 8878,
    "Ä -----------------------------------------------------------------": 8879,
    "Ä getSel": 8880,
    "Ä sanitize": 8881,
    "Ä curve": 8882,
    "Customer": 8883,
    "Ä refer": 8884,
    "BUTE": 8885,
    "Ä getElements": 8886,
    "Ä checkNotNull": 8887,
    "Ä Control": 8888,
    "oped": 8889,
    "iolation": 8890,
    "Ä dataType": 8891,
    "Ä histogram": 8892,
    "Ä getView": 8893,
    "Ä calculated": 8894,
    "Side": 8895,
    "Ä ur": 8896,
    "Ä principal": 8897,
    "62": 8898,
    "kb": 8899,
    "AMP": 8900,
    "Ä {@": 8901,
    "Ä imag": 8902,
    "Maps": 8903,
    "Ä latitude": 8904,
    "ased": 8905,
    "ae": 8906,
    "phabet": 8907,
    "HOST": 8908,
    "Delivery": 8909,
    "Ä dl": 8910,
    "Ä Fail": 8911,
    "itro": 8912,
    "exer": 8913,
    "DL": 8914,
    "UpperCase": 8915,
    "Ä compilation": 8916,
    "Ä isAssignableFrom": 8917,
    "osen": 8918,
    "Ä FILTER": 8919,
    "setting": 8920,
    "NonNull": 8921,
    "orer": 8922,
    "Ä policies": 8923,
    "Contract": 8924,
    "Ä three": 8925,
    "Ä compatibility": 8926,
    "Expressions": 8927,
    "Ä getUrl": 8928,
    "Ä authenticate": 8929,
    "Ä Directory": 8930,
    "://'": 8931,
    "Connected": 8932,
    "Ä copying": 8933,
    "Ä tor": 8934,
    "warn": 8935,
    "Ä separated": 8936,
    "Ä band": 8937,
    "Ä transactions": 8938,
    "PH": 8939,
    "Ä parses": 8940,
    "POINT": 8941,
    "43": 8942,
    "sRequest": 8943,
    "engine": 8944,
    "arest": 8945,
    "Images": 8946,
    "Finds": 8947,
    "Ä pixels": 8948,
    "amount": 8949,
    "Ä exactly": 8950,
    "Ä cv": 8951,
    "Stmt": 8952,
    "Ä Empty": 8953,
    "pars": 8954,
    "CF": 8955,
    "Dr": 8956,
    "Ä getPage": 8957,
    "Ä 80": 8958,
    "Ä broadcast": 8959,
    "|\\": 8960,
    "Ä LI": 8961,
    "Ä OutputStream": 8962,
    "Ä bins": 8963,
    "Ä Merge": 8964,
    "Ä campaign": 8965,
    "Locked": 8966,
    "elta": 8967,
    "Ä compressed": 8968,
    "distance": 8969,
    "imeType": 8970,
    "Ä soft": 8971,
    "dtype": 8972,
    "Acc": 8973,
    "Ä getI": 8974,
    "Ä %(": 8975,
    "Formats": 8976,
    "Ä Background": 8977,
    "{}'": 8978,
    "Ä FORM": 8979,
    "Ä Associ": 8980,
    "acc": 8981,
    "Ä 655": 8982,
    "outine": 8983,
    "Ä EMPTY": 8984,
    "Ä locals": 8985,
    "steps": 8986,
    "ech": 8987,
    "HttpRequest": 8988,
    "TRAN": 8989,
    "Ä camel": 8990,
    "SECON": 8991,
    "detail": 8992,
    "cludes": 8993,
    "contact": 8994,
    "categories": 8995,
    "ello": 8996,
    "Ä getState": 8997,
    "FFFF": 8998,
    "Evenement": 8999,
    "holders": 9000,
    "peg": 9001,
    "fol": 9002,
    "Distribution": 9003,
    "Ä separate": 9004,
    "dro": 9005,
    "Ä atoms": 9006,
    "Ä asynchronous": 9007,
    "Ä orderByComparator": 9008,
    "sy": 9009,
    "apply": 9010,
    "Ä logrus": 9011,
    "todo": 9012,
    "Obser": 9013,
    "Ä getL": 9014,
    "reet": 9015,
    "Ä yy": 9016,
    "Ä How": 9017,
    "ntil": 9018,
    "Delet": 9019,
    "Ä mutex": 9020,
    "Grant": 9021,
    "Ä amazonaws": 9022,
    "Ä retrieves": 9023,
    "ugs": 9024,
    "uplicate": 9025,
    "Ä slash": 9026,
    "Ä getParam": 9027,
    "Ä swing": 9028,
    "Ä Calculate": 9029,
    "Skill": 9030,
    "uck": 9031,
    "fony": 9032,
    "Ä sf": 9033,
    "Ä surface": 9034,
    "Ä 21": 9035,
    "73": 9036,
    "Pixel": 9037,
    "Tuple": 9038,
    "Ä ci": 9039,
    "Ä Ra": 9040,
    "Ä Mon": 9041,
    "Ä Art": 9042,
    "Ä Events": 9043,
    "}_": 9044,
    "Ä envelope": 9045,
    "RequestException": 9046,
    "Ä refs": 9047,
    "Ä ports": 9048,
    "Ä sink": 9049,
    "Ä wiki": 9050,
    "Comments": 9051,
    "Ä light": 9052,
    "AST": 9053,
    "Cons": 9054,
    "Ä Attributes": 9055,
    "double": 9056,
    "Ä Equal": 9057,
    "Ä addClass": 9058,
    "Ä wraps": 9059,
    "72": 9060,
    "peated": 9061,
    "vey": 9062,
    "Ä Site": 9063,
    "Ä stores": 9064,
    "Ä scene": 9065,
    "Ä filenames": 9066,
    "Ä Assertion": 9067,
    "scheme": 9068,
    "andbox": 9069,
    "Ä executable": 9070,
    "repository": 9071,
    "Ä getDecl": 9072,
    "QueryBuilder": 9073,
    "nn": 9074,
    "Ä rf": 9075,
    "coords": 9076,
    "Ä Unknown": 9077,
    "+\"": 9078,
    "Ä Ä Ä Ä Ä Ä Ä Ä Ä Ä Ä Ä Ä Ä ": 9079,
    "venience": 9080,
    "DT": 9081,
    "country": 9082,
    "rev": 9083,
    "Book": 9084,
    "itable": 9085,
    "COD": 9086,
    "Ä adaptor": 9087,
    "Ä unsigned": 9088,
    "Ä '%'": 9089,
    "}}": 9090,
    "seudo": 9091,
    "Ä typed": 9092,
    "icture": 9093,
    "Clear": 9094,
    "pag": 9095,
    "ti": 9096,
    "Ä cacheKey": 9097,
    "Ä realpath": 9098,
    "UTE": 9099,
    "Ä exponent": 9100,
    "Ä imported": 9101,
    "ReturnType": 9102,
    "Ä linear": 9103,
    "Ä basePath": 9104,
    "LF": 9105,
    "arante": 9106,
    "Ä bp": 9107,
    "Ä Future": 9108,
    "Ä lc": 9109,
    "strong": 9110,
    "Ä SELECT": 9111,
    "oles": 9112,
    "Ä dm": 9113,
    "channels": 9114,
    "video": 9115,
    "sequent": 9116,
    "Ä world": 9117,
    "cript": 9118,
    "Ä preferred": 9119,
    "Ä accessToken": 9120,
    "Manifest": 9121,
    "Est": 9122,
    "Perm": 9123,
    "unicode": 9124,
    "INTER": 9125,
    "ipy": 9126,
    "Commands": 9127,
    "Ä CONFIG": 9128,
    "Ä subscribe": 9129,
    "Ä eg": 9130,
    "Ä 28": 9131,
    "Browser": 9132,
    "Ä sr": 9133,
    "Ä thumbnail": 9134,
    "Ä -----": 9135,
    "Ä intersect": 9136,
    "dbc": 9137,
    "Ä '<'": 9138,
    "Determin": 9139,
    "Ä uploaded": 9140,
    "Zip": 9141,
    "jango": 9142,
    "upal": 9143,
    "refresh": 9144,
    "Ä occ": 9145,
    "Ä APP": 9146,
    "WITH": 9147,
    "Pay": 9148,
    "machine": 9149,
    "Ä Validator": 9150,
    "porary": 9151,
    "Prob": 9152,
    "Ä hooks": 9153,
    "Ä compression": 9154,
    "Principal": 9155,
    "free": 9156,
    "bas": 9157,
    "tas": 9158,
    "Review": 9159,
    "Ä rdf": 9160,
    "Tmp": 9161,
    "Ä getToken": 9162,
    "Ä '''": 9163,
    "Ä Region": 9164,
    "Ä providers": 9165,
    "Ä Bool": 9166,
    "usage": 9167,
    "Notify": 9168,
    "Ä buckets": 9169,
    "Ä metav": 9170,
    "Ä shut": 9171,
    "501": 9172,
    "clusive": 9173,
    "subscribe": 9174,
    "Ä '@'": 9175,
    "bottom": 9176,
    "editor": 9177,
    "Ä rather": 9178,
    "Ä invoice": 9179,
    "Ä sites": 9180,
    "Ä datasource": 9181,
    "Ä kb": 9182,
    "Ä AST": 9183,
    "ascii": 9184,
    "ROOT": 9185,
    "Mouse": 9186,
    "Ä FINE": 9187,
    "random": 9188,
    "Ä getLog": 9189,
    "Ä Initialize": 9190,
    "`,": 9191,
    "Ä longitude": 9192,
    "FromString": 9193,
    "Free": 9194,
    "Ä persistent": 9195,
    "Ä codec": 9196,
    "mi": 9197,
    "Ä things": 9198,
    "INDEX": 9199,
    "compute": 9200,
    "Ä isTrace": 9201,
    "acters": 9202,
    "Family": 9203,
    "Ä TEXT": 9204,
    "Ä ipv": 9205,
    "Ä TimeUnit": 9206,
    "=>": 9207,
    "Ä notifications": 9208,
    "Ä ndim": 9209,
    "WithHttp": 9210,
    "Counts": 9211,
    "Behavior": 9212,
    "Compiler": 9213,
    "Ä prof": 9214,
    "bidden": 9215,
    "cursor": 9216,
    "Started": 9217,
    "Ä overlay": 9218,
    "Ä closest": 9219,
    "Native": 9220,
    "Ä ring": 9221,
    "65": 9222,
    "Ä Ind": 9223,
    "kind": 9224,
    "Ä Series": 9225,
    "NumberOf": 9226,
    "$'": 9227,
    "Ä ie": 9228,
    "Ä vault": 9229,
    "Ä wallet": 9230,
    "comments": 9231,
    "inality": 9232,
    "Focus": 9233,
    "Ä Password": 9234,
    "ETCH": 9235,
    "Ä ArgumentError": 9236,
    "abl": 9237,
    "Ä MS": 9238,
    "Ä performance": 9239,
    "atial": 9240,
    "Ä setattr": 9241,
    "Delta": 9242,
    "related": 9243,
    "Ä nu": 9244,
    "utation": 9245,
    "Ä helpers": 9246,
    "Ä FS": 9247,
    "Ä Preconditions": 9248,
    "Ä Signature": 9249,
    "EAR": 9250,
    "Ä Memory": 9251,
    "screen": 9252,
    "Ä ($": 9253,
    "RACE": 9254,
    "WithHttpInfo": 9255,
    "since": 9256,
    "AccessToken": 9257,
    "riendly": 9258,
    "Ä 180": 9259,
    "Ä taxonomy": 9260,
    "payment": 9261,
    "Ä collap": 9262,
    "Ä getHeight": 9263,
    "Ä nx": 9264,
    "Ä jcasType": 9265,
    "VG": 9266,
    "Invocation": 9267,
    "Ä copied": 9268,
    "soft": 9269,
    "quot": 9270,
    "Ä further": 9271,
    "Ä getContainer": 9272,
    "segment": 9273,
    "bus": 9274,
    "(%": 9275,
    "Ä tell": 9276,
    "Ä setDefault": 9277,
    "disabled": 9278,
    "Ä OutputInterface": 9279,
    "Ä xs": 9280,
    "Ä satisf": 9281,
    "Layers": 9282,
    "Ä identified": 9283,
    "ounds": 9284,
    "Ä getJ": 9285,
    "Ä INFO": 9286,
    "Ä reach": 9287,
    "iving": 9288,
    "perature": 9289,
    "Ä datastore": 9290,
    "FormatException": 9291,
    "Ä compareTo": 9292,
    "atter": 9293,
    "FOUND": 9294,
    "dp": 9295,
    "Ä dateTime": 9296,
    "submit": 9297,
    "Ä quoted": 9298,
    "Ä redu": 9299,
    "Ä gap": 9300,
    "comb": 9301,
    "Ä Collect": 9302,
    "FFER": 9303,
    "imen": 9304,
    "Ä SdkInternal": 9305,
    "ocial": 9306,
    "Ä intValue": 9307,
    "KNOWN": 9308,
    "family": 9309,
    "Ä Iss": 9310,
    "Ä Display": 9311,
    "Ä quality": 9312,
    "Library": 9313,
    "Connections": 9314,
    "Ä Rect": 9315,
    "refs": 9316,
    "YY": 9317,
    "Ä restriction": 9318,
    "mgmt": 9319,
    "LOSE": 9320,
    "Scheme": 9321,
    "Ä ticket": 9322,
    "Ä had": 9323,
    "Ä errorMessage": 9324,
    "egment": 9325,
    "Ä Consumer": 9326,
    "Ä tries": 9327,
    "Ä rtype": 9328,
    "rection": 9329,
    "Ä simpl": 9330,
    "Ä carry": 9331,
    "ARE": 9332,
    "Ä Const": 9333,
    "(),": 9334,
    "Ä addElement": 9335,
    "Ä Deprecated": 9336,
    "Tile": 9337,
    "{}\"": 9338,
    "eof": 9339,
    "release": 9340,
    "under": 9341,
    "background": 9342,
    "Operations": 9343,
    "CREATE": 9344,
    "Hidden": 9345,
    "phere": 9346,
    "INVALID": 9347,
    "Ä qualified": 9348,
    "90": 9349,
    "Ä marked": 9350,
    "Ä ISO": 9351,
    "Ä Sum": 9352,
    "many": 9353,
    "Ä Counter": 9354,
    "indent": 9355,
    "Variant": 9356,
    "Ä nitro": 9357,
    "Ä SdkInternalList": 9358,
    "twig": 9359,
    "Ä hierarchy": 9360,
    "Runs": 9361,
    "andas": 9362,
    "Ä Should": 9363,
    "Ä defining": 9364,
    "Ä Recognition": 9365,
    "prepare": 9366,
    "ognized": 9367,
    "Ä relevant": 9368,
    "Ä \")": 9369,
    "Ä authenticated": 9370,
    "special": 9371,
    "Ä Errors": 9372,
    "tables": 9373,
    "repeat": 9374,
    "external": 9375,
    "Ä Us": 9376,
    "Ä generation": 9377,
    "Dest": 9378,
    "lon": 9379,
    "Ä impl": 9380,
    "proc": 9381,
    "Abs": 9382,
    "EE": 9383,
    "Days": 9384,
    "Ä Geo": 9385,
    "otherlv": 9386,
    "Ä sparse": 9387,
    "Ä age": 9388,
    "Ä bitmap": 9389,
    "Ä material": 9390,
    "Ä overflow": 9391,
    "Ä getProperties": 9392,
    "proto": 9393,
    "DEBUG": 9394,
    "Ä company": 9395,
    "Ä Driver": 9396,
    "Ä aux": 9397,
    "itles": 9398,
    "NextToken": 9399,
    "Composite": 9400,
    "52": 9401,
    "Ä Dial": 9402,
    "Ä ClassLoader": 9403,
    "Ä HasPrefix": 9404,
    "Blob": 9405,
    "asset": 9406,
    "etries": 9407,
    "Ä Mapping": 9408,
    "Performs": 9409,
    "Middleware": 9410,
    "Ä cmp": 9411,
    "NECT": 9412,
    "Py": 9413,
    "Ä Upload": 9414,
    "LoadBalancer": 9415,
    "tasks": 9416,
    "Ä dup": 9417,
    "Analysis": 9418,
    "Ä prefixes": 9419,
    "Ä preserve": 9420,
    "igher": 9421,
    "OBJECT": 9422,
    "Curve": 9423,
    "Ä returnType": 9424,
    "Ä Sm": 9425,
    "Ä cleaned": 9426,
    "Ä removing": 9427,
    "COR": 9428,
    "phrase": 9429,
    "Already": 9430,
    "Whitespace": 9431,
    "Targets": 9432,
    "Ä setStatus": 9433,
    "When": 9434,
    "Ä chang": 9435,
    "accept": 9436,
    "Ä rd": 9437,
    "Ä extracted": 9438,
    "Ä utc": 9439,
    "Ä glyph": 9440,
    "Ä lst": 9441,
    "Ä topology": 9442,
    "Ä NUM": 9443,
    "avor": 9444,
    "Ä blocking": 9445,
    "draw": 9446,
    "Partial": 9447,
    "runtime": 9448,
    "000000": 9449,
    "tricted": 9450,
    "Phone": 9451,
    "42": 9452,
    "Ä retries": 9453,
    "agma": 9454,
    "Mgr": 9455,
    "$/'": 9456,
    "Ä Imp": 9457,
    "Ä Fin": 9458,
    "Program": 9459,
    "ffff": 9460,
    "Plugins": 9461,
    "47": 9462,
    "Walk": 9463,
    "wb": 9464,
    "Ä childNode": 9465,
    "Ä grpc": 9466,
    "Ä subscriber": 9467,
    "park": 9468,
    "Ä STRING": 9469,
    "68": 9470,
    "Ä letter": 9471,
    "Ä newline": 9472,
    "Ä Flow": 9473,
    "Ä quad": 9474,
    "Ä together": 9475,
    "Ä HttpResponse": 9476,
    "aked": 9477,
    "Ä visibility": 9478,
    "Ä disconnect": 9479,
    "Ä Unix": 9480,
    "Ä pods": 9481,
    "Ä ir": 9482,
    "Ä Tab": 9483,
    "Ä accounts": 9484,
    "Padding": 9485,
    "ACL": 9486,
    "Ä published": 9487,
    "Ä abspath": 9488,
    "extensions": 9489,
    "aybe": 9490,
    "volume": 9491,
    "Ä createFrom": 9492,
    "Ä getAbsolutePath": 9493,
    "Ä cx": 9494,
    "Ä invocation": 9495,
    "crim": 9496,
    "operator": 9497,
    "61": 9498,
    "sys": 9499,
    "Ä Exit": 9500,
    "Ä addError": 9501,
    "Ä buttons": 9502,
    "TIMEOUT": 9503,
    "ILED": 9504,
    "termin": 9505,
    "Ä‰Ä‰Ä‰": 9506,
    "Ä nodeType": 9507,
    "alyze": 9508,
    "Ä ||=": 9509,
    "uzz": 9510,
    "WARNING": 9511,
    "Ä hyper": 9512,
    "Ä nt": 9513,
    "Ä Transport": 9514,
    "Ä overrides": 9515,
    "Than": 9516,
    "Matching": 9517,
    "Ä Modify": 9518,
    "uite": 9519,
    "Ä Parent": 9520,
    "las": 9521,
    "yaml": 9522,
    "inc": 9523,
    "Margin": 9524,
    "Ä findOne": 9525,
    "vidence": 9526,
    "Ä watcher": 9527,
    "onal": 9528,
    "Ä tip": 9529,
    "ABLED": 9530,
    "Ä /=": 9531,
    "Ä allErrs": 9532,
    "awn": 9533,
    "inux": 9534,
    "Share": 9535,
    "google": 9536,
    "Digits": 9537,
    "Embed": 9538,
    "Ä RecognitionException": 9539,
    "ught": 9540,
    "olec": 9541,
    "arning": 9542,
    "Ä ordering": 9543,
    "Ä General": 9544,
    "Ä Fast": 9545,
    "Ä resourceName": 9546,
    "Ä Mongo": 9547,
    "_\"": 9548,
    "Ä quick": 9549,
    "Ä lastIndexOf": 9550,
    "finite": 9551,
    "Sm": 9552,
    "Ä reversed": 9553,
    "spaces": 9554,
    "Ä getMin": 9555,
    "Completed": 9556,
    "Ä Cor": 9557,
    "cles": 9558,
    "cular": 9559,
    "MAN": 9560,
    "pending": 9561,
    "Ä Dev": 9562,
    "Ä flash": 9563,
    "Ä inserted": 9564,
    "super": 9565,
    "Ä clusters": 9566,
    "ipant": 9567,
    "Digest": 9568,
    "Launch": 9569,
    "Ä um": 9570,
    "Ä '}'": 9571,
    "backup": 9572,
    "Ä sends": 9573,
    "builder": 9574,
    "olr": 9575,
    "compiler": 9576,
    "Subnet": 9577,
    "Ä white": 9578,
    "Ä ReflectionClass": 9579,
    "Front": 9580,
    "Pub": 9581,
    "Ä please": 9582,
    "Ä na": 9583,
    "ARK": 9584,
    "empts": 9585,
    "Delegate": 9586,
    "Ä Sim": 9587,
    "Ä passing": 9588,
    "Ä Union": 9589,
    "RY": 9590,
    "Ä performed": 9591,
    "Queries": 9592,
    "Unmarshal": 9593,
    "Validates": 9594,
    "Ä getLocale": 9595,
    "Ä fieldType": 9596,
    "metrics": 9597,
    "padding": 9598,
    "67": 9599,
    "zA": 9600,
    "Ä gamma": 9601,
    "Ä sorting": 9602,
    "Ä dirty": 9603,
    "Ä addTo": 9604,
    "vh": 9605,
    "Ä modifier": 9606,
    "Ä fopen": 9607,
    "auses": 9608,
    "Ä dummy": 9609,
    "switch": 9610,
    "CM": 9611,
    "permissions": 9612,
    "Ä elapsed": 9613,
    "[\"": 9614,
    "Ä getApplication": 9615,
    "Ä ErrCodeInvalid": 9616,
    "Ä nextToken": 9617,
    "issues": 9618,
    "Ä propag": 9619,
    "retry": 9620,
    "Ä Activity": 9621,
    "multiple": 9622,
    "Ä vocab": 9623,
    "Preference": 9624,
    "cmp": 9625,
    "Ä dem": 9626,
    "Ä stopped": 9627,
    "Ä splice": 9628,
    "Pull": 9629,
    "Ä deriv": 9630,
    "Ä 00": 9631,
    "PublicKey": 9632,
    "Ä Unicode": 9633,
    "------------------------------------------------": 9634,
    "Ä composite": 9635,
    "Cho": 9636,
    "Ä Does": 9637,
    "Ä submitted": 9638,
    "Google": 9639,
    "eloc": 9640,
    "armacy": 9641,
    "arations": 9642,
    "Ä setTimeout": 9643,
    "Ä Fprintf": 9644,
    "Ä Clean": 9645,
    "ners": 9646,
    "simple": 9647,
    "Ä aspect": 9648,
    "Ä Unexpected": 9649,
    "Ä getIdentifier": 9650,
    "FLAG": 9651,
    "Charset": 9652,
    "activity": 9653,
    "\".": 9654,
    "Ä observer": 9655,
    "Ä capt": 9656,
    "Ä Console": 9657,
    "Ä tcp": 9658,
    "ior": 9659,
    "Ä arange": 9660,
    "Const": 9661,
    "Ä DeepCopyInto": 9662,
    "selector": 9663,
    "Ä buffers": 9664,
    "added": 9665,
    "Ä CRE": 9666,
    "Aliases": 9667,
    "Ä flip": 9668,
    "lback": 9669,
    "Ä pat": 9670,
    "Ä \"=\"": 9671,
    "Ä Async": 9672,
    "Since": 9673,
    "Ä Show": 9674,
    "Ä Conf": 9675,
    "BB": 9676,
    "Ä Enable": 9677,
    "Lead": 9678,
    "Provision": 9679,
    "Ä Annotate": 9680,
    "GP": 9681,
    "MQ": 9682,
    "dates": 9683,
    "Ä toUpperCase": 9684,
    "Initializes": 9685,
    "Ä LEFT": 9686,
    "MLE": 9687,
    "Ä problems": 9688,
    "CONTENT": 9689,
    "Alpha": 9690,
    "Ä writable": 9691,
    "Age": 9692,
    "props": 9693,
    "tection": 9694,
    "Ä protobuf": 9695,
    "Ä Dict": 9696,
    "Ä Then": 9697,
    "Configurations": 9698,
    "iso": 9699,
    "Ä skipped": 9700,
    "Ä InternalXbase": 9701,
    "Ä updating": 9702,
    "Ä Router": 9703,
    "See": 9704,
    "Ä Helper": 9705,
    "Ä quit": 9706,
    "yes": 9707,
    "Ä Sl": 9708,
    "Runner": 9709,
    "Ä CharSequence": 9710,
    "Ä visited": 9711,
    "ERR": 9712,
    "Ä getUri": 9713,
    "criteria": 9714,
    "Ä issuer": 9715,
    "Until": 9716,
    "Ä Php": 9717,
    "Ä oth": 9718,
    "REE": 9719,
    "Ä Loop": 9720,
    "Ä Sync": 9721,
    "Ä BE": 9722,
    "Fire": 9723,
    "colors": 9724,
    "Styles": 9725,
    "escriptions": 9726,
    "weights": 9727,
    "Ä Warning": 9728,
    "equal": 9729,
    "Ä OB": 9730,
    "Ä ancestor": 9731,
    "Resp": 9732,
    "Ä unexpected": 9733,
    "Ä attributeName": 9734,
    "Cast": 9735,
    "Ä Watch": 9736,
    "enchmark": 9737,
    "ValueException": 9738,
    "Coverage": 9739,
    "Ä mm": 9740,
    "forms": 9741,
    "Ä highest": 9742,
    "imension": 9743,
    "Ä WARNING": 9744,
    "Ä tracker": 9745,
    "itness": 9746,
    ";\\": 9747,
    "written": 9748,
    "UCT": 9749,
    "Ä ign": 9750,
    "Ä iface": 9751,
    "Ä mr": 9752,
    "Ä unix": 9753,
    "train": 9754,
    "Ä scheduled": 9755,
    "Ä persistence": 9756,
    "Ä Matcher": 9757,
    "questions": 9758,
    "Ä PROPERTY": 9759,
    "Ä Ä": 9760,
    "Ä Publish": 9761,
    "Claim": 9762,
    "Executes": 9763,
    "gz": 9764,
    "eds": 9765,
    "Fact": 9766,
    "Ä Style": 9767,
    "Ä vertical": 9768,
    "Catalog": 9769,
    "Ä pv": 9770,
    "Ä Ab": 9771,
    "lists": 9772,
    "AccessException": 9773,
    "Ä getPl": 9774,
    "Ä Elastic": 9775,
    "Ä checkpoint": 9776,
    "Ä SHA": 9777,
    ">>": 9778,
    "Ä Docker": 9779,
    "Ä moduleName": 9780,
    "ensus": 9781,
    "Ä rendering": 9782,
    "Ä isdir": 9783,
    "Ä BO": 9784,
    "Ä Ä‰Ä Ä Ä Ä ": 9785,
    "Ä identify": 9786,
    "Ä tre": 9787,
    "Ä appear": 9788,
    "Ä accessor": 9789,
    "Ä '{'": 9790,
    "Dynamic": 9791,
    "Ä deletes": 9792,
    "DA": 9793,
    "Look": 9794,
    "ah": 9795,
    "Ä Named": 9796,
    "Ä Rece": 9797,
    "Ä workers": 9798,
    "Ä [%": 9799,
    "lier": 9800,
    "Reflection": 9801,
    "Based": 9802,
    "41": 9803,
    "Ä svg": 9804,
    "Ä presence": 9805,
    "Ä pathname": 9806,
    "Bond": 9807,
    "rozen": 9808,
    "Ä Menu": 9809,
    "days": 9810,
    "dot": 9811,
    "sim": 9812,
    "Ä markup": 9813,
    "Ä migrations": 9814,
    "car": 9815,
    "Ä much": 9816,
    "Ä millisec": 9817,
    "Ä baseUrl": 9818,
    "PARAMETER": 9819,
    "Ä orientation": 9820,
    "Ä Comment": 9821,
    ">%": 9822,
    "Geometry": 9823,
    "Ä '&'": 9824,
    "Ä getStatusCode": 9825,
    "NONE": 9826,
    "permission": 9827,
    "There": 9828,
    "Modifier": 9829,
    "Ä taken": 9830,
    "Ä fun": 9831,
    "Ä getEvent": 9832,
    "TA": 9833,
    "Ä ib": 9834,
    "uy": 9835,
    "Ä updateres": 9836,
    "Refs": 9837,
    "iterator": 9838,
    "Cached": 9839,
    "Primitive": 9840,
    "Ä MESSAGE": 9841,
    "och": 9842,
    "Ä bracket": 9843,
    "Ä affected": 9844,
    "reverse": 9845,
    "Ä ba": 9846,
    "ratio": 9847,
    "Ä invert": 9848,
    "Ä getOptions": 9849,
    "Ä \"]": 9850,
    "Ä getLine": 9851,
    "Ä FIXME": 9852,
    "alloc": 9853,
    "breviated": 9854,
    "direction": 9855,
    "Ä Category": 9856,
    "verrides": 9857,
    "Leaf": 9858,
    "dom": 9859,
    "Ä footer": 9860,
    "pus": 9861,
    "Ä decom": 9862,
    "Ä identifiers": 9863,
    "Am": 9864,
    "Mock": 9865,
    "Discount": 9866,
    "Ä Twig": 9867,
    "eeper": 9868,
    "Ä hashes": 9869,
    "Ä \"]\"": 9870,
    "scan": 9871,
    "Dirs": 9872,
    "Ä evaluation": 9873,
    "Ä Offset": 9874,
    "Ä guid": 9875,
    "Ä choose": 9876,
    "compare": 9877,
    "delta": 9878,
    "Ä gt": 9879,
    "Ä fld": 9880,
    "Ä dbc": 9881,
    "Ä projectId": 9882,
    "IMP": 9883,
    "Ä nr": 9884,
    "ordered": 9885,
    "Ä operand": 9886,
    "Ä getAnnotation": 9887,
    "Ä getLength": 9888,
    "Ä Language": 9889,
    "Safe": 9890,
    "oggle": 9891,
    "Ä SSH": 9892,
    "registry": 9893,
    "SIB": 9894,
    "Existing": 9895,
    "oins": 9896,
    "bb": 9897,
    "platform": 9898,
    "upon": 9899,
    "PROPERTY": 9900,
    "Big": 9901,
    "Numeric": 9902,
    "SD": 9903,
    "++": 9904,
    "TLS": 9905,
    "Creation": 9906,
    "Ä folders": 9907,
    "Ä Direct": 9908,
    "lert": 9909,
    "Ä Resolve": 9910,
    "Ä TCP": 9911,
    "Ä Subject": 9912,
    "Bin": 9913,
    "Ä dims": 9914,
    "Deser": 9915,
    "Ä OrderedDict": 9916,
    "================================================================": 9917,
    "Watcher": 9918,
    "Ä encountered": 9919,
    "Ä queryParams": 9920,
    "Ä FIELD": 9921,
    "Ä urlencode": 9922,
    "deg": 9923,
    "ermark": 9924,
    "amel": 9925,
    "Ä Word": 9926,
    "notification": 9927,
    "Ä stackPtr": 9928,
    "Ä packageName": 9929,
    "Ä soap": 9930,
    "NUMBER": 9931,
    "Ranges": 9932,
    "Ä Move": 9933,
    "Ä 48": 9934,
    "Ä localVar": 9935,
    "Ä needle": 9936,
    "Compile": 9937,
    "Ä occurs": 9938,
    "Ä pivot": 9939,
    "using": 9940,
    "antic": 9941,
    "Ä Redirect": 9942,
    "Ä exceed": 9943,
    "Ä Ä‰Ä‰Ä‰Ä‰Ä‰": 9944,
    ")?": 9945,
    "Ä secondary": 9946,
    "GHT": 9947,
    "Ä ---": 9948,
    "Ä bid": 9949,
    "Ä getSize": 9950,
    "Ä UTC": 9951,
    "oved": 9952,
    "lp": 9953,
    "Ä Retry": 9954,
    "Ä translated": 9955,
    "Ä getDocument": 9956,
    "Ä doing": 9957,
    "Prev": 9958,
    "Views": 9959,
    "Ä Flag": 9960,
    "DArray": 9961,
    "Ä isString": 9962,
    "race": 9963,
    "Ä EVENT": 9964,
    "Ä windows": 9965,
    "Slug": 9966,
    "Ä setError": 9967,
    "Ä getEnd": 9968,
    "Specific": 9969,
    "ocom": 9970,
    "assets": 9971,
    "orders": 9972,
    "phi": 9973,
    "grad": 9974,
    "92": 9975,
    "ONTH": 9976,
    "Lifecycle": 9977,
    "Ä du": 9978,
    "Ä getBy": 9979,
    "Ä Will": 9980,
    "FR": 9981,
    "ftime": 9982,
    "Ä IAM": 9983,
    "Ä HttpServletRequest": 9984,
    "Ä continu": 9985,
    "Ä dp": 9986,
    "kw": 9987,
    "Ac": 9988,
    "Ä Pdf": 9989,
    "Mac": 9990,
    "bundle": 9991,
    "PointerException": 9992,
    "backend": 9993,
    "Ä propName": 9994,
    "Ä Layout": 9995,
    "entities": 9996,
    "Ä tot": 9997,
    "Ä cron": 9998,
    "charset": 9999,
    "Ä Tri": 10000,
    "prev": 10001,
    "Ä OSError": 10002,
    "atermark": 10003,
    "Ä green": 10004,
    "standard": 10005,
    "Ä classpath": 10006,
    "ojo": 10007,
    "ining": 10008,
    "ErrorException": 10009,
    "Ä inputStream": 10010,
    "logs": 10011,
    "origin": 10012,
    "cond": 10013,
    "activate": 10014,
    "Deploy": 10015,
    "Ä possibly": 10016,
    "Ä meas": 10017,
    "andatory": 10018,
    "));": 10019,
    "Ä concurrent": 10020,
    "Ä Extension": 10021,
    "Ä remainder": 10022,
    "WIDTH": 10023,
    "Ä Managed": 10024,
    "Ä SUB": 10025,
    "Removed": 10026,
    "Ä activation": 10027,
    "Ä getParameters": 10028,
    "inputs": 10029,
    "Ä Snapshot": 10030,
    "()\"": 10031,
    "unt": 10032,
    "Ä getList": 10033,
    "Ä UID": 10034,
    "team": 10035,
    "Ä manually": 10036,
    "elem": 10037,
    "#'": 10038,
    "Ä conversation": 10039,
    "Ä Inet": 10040,
    "anned": 10041,
    "Ä Sym": 10042,
    "Ä resid": 10043,
    "Align": 10044,
    "semble": 10045,
    "Ä vectors": 10046,
    "inline": 10047,
    "Ä singular": 10048,
    "geom": 10049,
    "sur": 10050,
    "Ä NotImplemented": 10051,
    "gi": 10052,
    "Devices": 10053,
    "Ä bi": 10054,
    "Managed": 10055,
    "Ä arbit": 10056,
    "COMP": 10057,
    "Ä '+'": 10058,
    "Inputs": 10059,
    "Ä partitions": 10060,
    "customer": 10061,
    "construct": 10062,
    "Ä Font": 10063,
    "through": 10064,
    "Ä attachments": 10065,
    "LEFT": 10066,
    "Ä offer": 10067,
    "Ä stud": 10068,
    "Exceeded": 10069,
    "Rev": 10070,
    "Ä INVALID": 10071,
    "Numbers": 10072,
    "Ä af": 10073,
    "Ä today": 10074,
    "exc": 10075,
    "imetype": 10076,
    "Ä Down": 10077,
    "Ä METH": 10078,
    "ONT": 10079,
    "Ä traverse": 10080,
    "Ä fatal": 10081,
    "Ä peers": 10082,
    "Video": 10083,
    "Self": 10084,
    "Ä regions": 10085,
    "begin": 10086,
    "Ä ping": 10087,
    "jobs": 10088,
[...]
